
/**
  ******************************************************************************
  * @file    network_data.c
  * @author  AST Embedded Analytics Research Platform
  * @date    Fri Sep 30 17:10:37 2022
  * @brief   AI Tool Automatic Code Generator for Embedded NN computing
  ******************************************************************************
  * @attention
  *
  * Copyright (c) 2021 STMicroelectronics.
  * All rights reserved.
  *
  * This software is licensed under terms that can be found in the LICENSE file
  * in the root directory of this software component.
  * If no LICENSE file comes with this software, it is provided AS-IS.
  ******************************************************************************
  */
#include "network_data.h"
#include "ai_platform_interface.h"

AI_API_DECLARE_BEGIN

AI_ALIGNED(32)
const ai_u64 s_network_network_weights_array_u64[ 3470 ] = {
  0x3f5ef255bf0ad2d0U, 0xbf7d5f1ebe2d787dU, 0xbda3185d3fa03ebeU, 0x3fa0c673bfac4a6aU,
  0xbfa5a0fc3cec21ceU, 0x3d1ce2f53f9870bdU, 0x3f337befbf8fff58U, 0xbec39d3a3e167661U,
  0xbdafac433e5a3ca7U, 0x3f1b812abf1e518bU, 0x4057f19dbf0507c4U, 0x4050df7b408e5f3cU,
  0xc0009ed1bf0c0656U, 0x409d32324048e09aU, 0xbe369a1cbfb7b371U, 0x4071980b4045ecffU,
  0xbf015c663fc86871U, 0xbd9c9f8840540b4cU, 0x406fd8c0bee57ecbU, 0xbf2d6490bff238c3U,
  0xbeea05ef404d6129U, 0x40182ce8403dec78U, 0x4034da9c40833c1aU, 0xc01b0793be540189U,
  0x3fb3aad4400baf9aU, 0x402abaa63fa1c4cbU, 0xc09d4130bfbcf618U, 0x3fa99251403adcfaU,
  0xbdc2bd6a40728de6U, 0xc078f70e408432e8U, 0xc043f75c3efbe8deU, 0xc051d478c08cedddU,
  0x400485103f2914f2U, 0xc09fd16bc0456bd5U, 0xbd5eeb493fad7019U, 0xc06c81e6c056cb26U,
  0x3eefe04ebfb4b9cbU, 0x3e9a65d1c05a717dU, 0xc06aeffc3f283110U, 0x3f01fd053ff581a0U,
  0x3ee506efc04f2e08U, 0xc0257a10c03de5fdU, 0xc03ef033c0827c7aU, 0x40122f283e4d496cU,
  0xbfa4f9d8c0058f3aU, 0xc02f6b32bf9e7b74U, 0x409ff49a3fb4732dU, 0xbfbf1608c031ae2dU,
  0x3e8c9024c0724f2dU, 0x40770291c082081aU, 0x3d7fd462bda9a638U, 0x3d48ced73d0bc76eU,
  0xbfa45998be0f48ffU, 0x3d2cb3ea3d38b466U, 0xbe18b9ebbd916280U, 0x3d5df9ea3d68f4d5U,
  0xbe2f93003d441b23U, 0xbe0c22fc3d66d4fdU, 0x3d33d770be3f68e7U, 0xbe3e451dbfad57c8U,
  0xbe59e5d93d8b1051U, 0x3d670a6d3d3e9d07U, 0x3d761a343d51e1efU, 0xbfb4c589be01d93dU,
  0xbedaa9f53d5f3e3cU, 0x3d6a08cebf0f0a91U, 0xbfe34b62bf7591b2U, 0xbed30d1a3d499e9fU,
  0xbe0347183d6f36e1U, 0x3e85e23f3d6173c8U, 0x3da2092f3dee8ed0U, 0x3c8ce8e23db1f21bU,
  0x3d09b3ce3cc5b8eeU, 0x3dca42cc3c73f862U, 0x3df8ee83bc0641fcU, 0x3d64ffc03d2bd815U,
  0x3d89fb7a3dade636U, 0x3cb842d2bc97b3ebU, 0x3de80b5bbd1f460eU, 0x3db0bdf53d60137eU,
  0xbd9532613de071b8U, 0xbe25521f3dabe63dU, 0x3d4551a03cfca283U, 0x3de2bf1a3dab2201U,
  0x3d58f67d3dda5776U, 0xbd0b836a39c268a2U, 0x3ce616303d721cbdU, 0x3d1ca7943dbd350aU,
  0x3d1370a63dc308abU, 0xbd0c08ce3dc9dadeU, 0xbd80842b3db81925U, 0xbd03abaa3de85e3fU,
  0x3d7e14703e0b888fU, 0x3d5d28253d7cd236U, 0x3d2d2808bd3cd4e9U, 0x3dadb5f5ba9ae47eU,
  0x3d4527edb80ff5d0U, 0x3e0e38623c23900aU, 0x3ddf9775bddeb754U, 0x3df6dd66be2a2b80U,
  0x3e0f20f9bd9d5b8dU, 0x3d7be7f0bd9ec916U, 0x3dfbbb37bdcfc000U, 0x3d91005cbdfc7066U,
  0xbd7cf8f4bd3b9dd9U, 0xbe2874a43e25466aU, 0xbdb2d3543d15eb5dU, 0xbdf05a653d5bdd4aU,
  0xbd249fff3e1aa603U, 0xbd64c22e3d95720eU, 0xbdc8acf2396745cbU, 0xbc9697333d10c958U,
  0x3d57d11d3a5a9b56U, 0xbca958743d199943U, 0x3c65213abdbb0d63U, 0xbdc45cffba0c9e4bU,
  0xbb9e43493de3565cU, 0xbd2264dc3daed1dfU, 0xbe27f3f5387c6846U, 0xbe038c20bc8dc2abU,
  0xbc411668bcd30d16U, 0xbd2785143ce2fa5aU, 0x3c183544bc5507dfU, 0xbd1f6afc3c005b78U,
  0x3cc4a2d3bd7aeacbU, 0x3d82b7aebd884b5cU, 0x3d691c18bdd6afb8U, 0xbd513ee7be39480bU,
  0x3c201ddcbe30840dU, 0x3c0b70fabd9279d1U, 0x3d92ce0cbd153e98U, 0xbcb1ae1ebd914a49U,
  0xbe058b3abd4433a8U, 0xbc53aa0cbc951705U, 0x3ca95f813c54bff2U, 0x3cd679c1bdbea521U,
  0xbd2c7c5bbda57a19U, 0x3d872d2ebd2e1970U, 0xbd09ec51bd766eccU, 0xbd31c012bd59094dU,
  0xbd75e770bda4e79bU, 0xbe45049ebd0f37efU, 0xbe41d5f43d93c5f6U, 0xbe1074653dbe0285U,
  0xbe1f82a7bd3dc728U, 0xbe0906dabcdbc90eU, 0xbd91caa73cdfca18U, 0xbd961319bbe4f44eU,
  0xbd790ac2bce0d842U, 0xbcbe4dc6be0075f8U, 0xbd090f52bcacc7c7U, 0x3c6b1fecbdc2bfadU,
  0xbccd4018bdaa4790U, 0xbd65d861be0022e2U, 0x3da77a95be1868a1U, 0xbb6ded1a3c6f0b15U,
  0x3d86d7c9bd76688dU, 0x3c19e08ebbc9f6d7U, 0x3c4abd863d63b789U, 0x3d05e63dbcaa1217U,
  0x3d36ee843d24d7c3U, 0x3c90e5833cf89178U, 0xbb3fc410bc76a6e4U, 0x3d888a9a3acbcf4bU,
  0xbd7858df3c776a62U, 0xbdd4b9d7bda7c362U, 0xbe04669fbd82699bU, 0xbdf4f016be158580U,
  0xbdaa7bf9be02b152U, 0xbdb50f1cbe343e1bU, 0xbd488fb9be0255a4U, 0x3ce4e202bc853f2eU,
  0xbcaa02ac3cf4faebU, 0x3d72f02ebabaacbcU, 0x3d10c0553d6b6499U, 0xbcda765ebc12110aU,
  0x3c65bf643d91c221U, 0x3d13ab01baac3905U, 0x3d9971ab3d0b16d5U, 0x3cf3e9c1bba01841U,
  0x3cb3f1183db21596U, 0x3d4146b53c7bd86dU, 0xbd0717f9bd27e2b5U, 0xbddb7c93bdd7f380U,
  0xbe682cc9be072866U, 0xbe512f0ebe0de369U, 0xbde497cbbe171580U, 0xbddb5ba5bdf86019U,
  0xbd421f63bd696fefU, 0xbc4bcaf03cfd7b98U, 0x3b01294b3d8b4525U, 0x3d34bfea3cf17811U,
  0xbc7b394e3dbae0a7U, 0xbd9e610f3aec4043U, 0xbd40084cbd1ae027U, 0xbdeafba3bda924faU,
  0xbdbd6fdcbd780f7aU, 0xbd637cb9bd37f367U, 0xbdc30aa0bd931a04U, 0xbd71b6e0bda03f96U,
  0x3df33899bcca9a3eU, 0x3da0f98c3ce368cbU, 0x3cf69b433d4c2916U, 0x3d709c053dc38251U,
  0x3df6b3833dc9fa27U, 0x3db9aad43d824c84U, 0xbd69994d3dd4b569U, 0xbdba8538bc9d1779U,
  0xbe428b68be0aa80dU, 0xbe299fc0be3e116aU, 0xbe6a1508be84bfa7U, 0xbe934ac7be8649e2U,
  0xbe4f7489be68a8f9U, 0xbd2deedfbe46f318U, 0x3db5bac7bd72cb7fU, 0x3e2224c43da067d6U,
  0x3e5d82c13e4442dbU, 0x3e461eb03e248a2dU, 0x3e10785c3e344e40U, 0x3dbc90433e058b1dU,
  0xbd8a84a33ac9fbedU, 0xbdd01759bd9f6c13U, 0xbe690dc4be387a1bU, 0xbe81188ebe9bef65U,
  0xbe96d374be9981e9U, 0xbe70d7cbbe544ed2U, 0xbdc5a03ebb9dfdeeU, 0xbcc0a8acbda2f52fU,
  0x3c94bfefbbf16f82U, 0xbd7239773cc74dbbU, 0xbccbb4bdbc4182c7U, 0x3b017789bd39eb0bU,
  0x3cabc60fbd745178U, 0xbbe85c5cbb52c0a6U, 0x3d963f03bcd02ad9U, 0x3d8e672a3db6cecdU,
  0x3db4084a3d97bfd1U, 0xbb4e6175bb8c8994U, 0x3cb446db3d157d3cU, 0xbd0a55843cbd359eU,
  0x3c1c7b293ca10d64U, 0xbd49fa4cbc867eabU, 0x3bdd3b51bc1d3775U, 0xbc6279993d0a4d5dU,
  0xbd314fbbbc6e1489U, 0xbd2d15bbbdbef18aU, 0xbde406b2bd91854aU, 0xbd83e318bdb718afU,
  0xbdbe3fbdbda40747U, 0xbdb67f69bddec572U, 0xbdc5db84bd4e48f8U, 0xbcd77653bd6ea482U,
  0x3c16147abaaeddfaU, 0x3c2361243d4de503U, 0x3d978e673ba47ee4U, 0x3cdef2953d7fbe80U,
  0x3d95bc723d985b9aU, 0x3d5b8cbb3dcc7048U, 0x3dce32f33d842d12U, 0x3d47227c3d8cf890U,
  0xbc9e190c3cebc8a5U, 0xbd80abdcbd614758U, 0xbdaaf38abe05bef9U, 0xbe146730be1e474eU,
  0xbe25d1cabe10ae28U, 0xbe004505bda3d01eU, 0xbe251cfbbe1b8c07U, 0xbd6305ddbdf3ebe2U,
  0xbc7ca7e9bd01f438U, 0x3b8340d43cd1890eU, 0x3d305bfa3d924d74U, 0x3d9ad54b3ddb0cd9U,
  0x3d0bd2cb3c2b2363U, 0x3cd726b93d61eba2U, 0x3d03bf273ccc3480U, 0xbcd4e198bc502f82U,
  0xbd1bd885bd9bc1b1U, 0xbdbedb78bd73672dU, 0xbd9ff79abe00ca5dU, 0xbd1a39eabe18b8f5U,
  0xbcb86ca5bd83d592U, 0x3b2ddb43bcbb6127U, 0x3cbcfa943c987f19U, 0x3d6b839b3d693f60U,
  0xbbadd6823c4c6121U, 0xbd632ab7bcdf631cU, 0xbe44ff6ebda8e7c2U, 0xbe3ea86abe31a1f6U,
  0xbe0090fbbe006e83U, 0xbd1c98d9bd9b947bU, 0x3ceda5b0bc905a50U, 0x3c3349c63cba0c80U,
  0x3d7269cd3d8de63eU, 0x3de548de3dd9ce4cU, 0x3e0b32e13df02aa9U, 0x3e0c66cd3de57cbdU,
  0x3ce0957a3dd9cf0dU, 0x3d877e843d796bcbU, 0xbdbdbf05bd67f185U, 0xbe40fae7be07230bU,
  0xbe82394fbe86b9dbU, 0xbe97b50ebe863756U, 0xbe7de896be857f3eU, 0xbe587fdcbe8cd19cU,
  0xbe416afabe1b93e2U, 0xbbec094fbda1048fU, 0x3dba97d33d09671fU, 0x3dfcd2993dee979bU,
  0x3dfa05f13e372c78U, 0x3e1500003e164dcdU, 0x3db39f4c3e2c6ac2U, 0x3d88a0153dadd3b9U,
  0xbd5fe3323d411c3aU, 0xbe02690abd9d8528U, 0xbe58ade2be33fbd8U, 0xbea41e03be917974U,
  0xbe8fc363bea0858fU, 0xbe5b21dcbe84e9c8U, 0xbdba9f96bddf19b1U, 0x3d4abf63bd11a80fU,
  0x3d044931bbb85ad1U, 0x3d16c3fa3d0fe168U, 0x3d6c212f3d1d54a6U, 0x3b37c4ac3d50c2a9U,
  0x3ca0d22abc354a9aU, 0xbc45022abd1e3259U, 0xbca33bf93abed423U, 0xbca7313dbd278d33U,
  0x3ca09a53bc463b84U, 0xbd1a0a7dbbaf359fU, 0xbdae8b9abd51acfdU, 0xbd8d6612bd120f2eU,
  0xbd7f6048bd8c69e7U, 0xbd11644dbd81724dU, 0xbd3d5b1bbd8c3ca6U, 0x3cbd9dfc3ce491c3U,
  0x3c6efbc3bc90a1cdU, 0x3c8634f43c8c65c7U, 0x3de91c6e3d2594c4U, 0x3de03f443d9770fcU,
  0x3dc4b0a63d720505U, 0x3c7de3583db43ff3U, 0xbd4bee22bb747483U, 0xbe29265bbd90f0f2U,
  0xbe7780e2be3d43d4U, 0xbe9478d9be5ff37aU, 0xbe4347dbbe80a983U, 0xbe23f22dbe6bbd6fU,
  0xbda70d66be059b1dU, 0xbc8dffff3c35efecU, 0x3e0e46de3d3016e3U, 0x3e1a2f0c3e2a5d80U,
  0x3e1ff3823e43f4e1U, 0x3e4134913e438975U, 0x3df03a643e21aabaU, 0xbcaa50a53daa099bU,
  0xbe10fe73bd72304fU, 0xbe8429a9be83d943U, 0xbe88d99dbe89b8b1U, 0xbe9b2e0fbeb3d606U,
  0xbe9a9520be8b1a40U, 0xbe5ed706be6c0f6fU, 0xbdb68d84bdb28052U, 0x3d54e30bbc0a2e26U,
  0x3d314b833d69c0faU, 0x3de376613e02bb1eU, 0x3da992353e05338cU, 0x3dc281413dfeda6eU,
  0x3d77ef0c3dd7eb1cU, 0x3add08603d817ff4U, 0xbc9c942a3c796d75U, 0xbdb1028ebd882d95U,
  0xbe063878bdae1ed4U, 0xbe2ffd75be33605aU, 0xbdc8c9b2be61cac0U, 0xbde7b2c9be1fcf03U,
  0xbd46d59abcb7f9bbU, 0xbc98e120bcc8a488U, 0x3d2cacfd3bd0640fU, 0x39c567d6bd04f9f4U,
  0xbd681b25bd8958ceU, 0xbd50eaadbd2f9b9cU, 0xbbfcc35abce5fe27U, 0xbc78b465bd3e53caU,
  0xbca52365bac253e3U, 0xba9764043d65102eU, 0x3db622083c392caeU, 0x3dcd85d03db95b0fU,
  0x3d5628813d7127c5U, 0x3d00299a3b21b683U, 0x3cd4cb623c3f7b88U, 0xbcb70e183bc37a2aU,
  0xbda4bb42bd9397ecU, 0xbdc3230cbe1a14f3U, 0xbdd837ebbdfd74f2U, 0xbd2dce6abdac9b43U,
  0xbcc2b2adbd712efcU, 0x3cd767eebccb7ddaU, 0x3d8ccb72bc5f9fb1U, 0x3c52228a3d2c816cU,
  0xbc0a98263cbacfd5U, 0xbc2d6d8abd1a1817U, 0xbd93fc31bccf2bf3U, 0xbcb06ec3bcb5fcb2U,
  0xbb749b03bcb2677fU, 0xbc495e45bc49cf49U, 0xbc81bebabc78a068U, 0x3aa45b6e3ca906d8U,
  0x3d006b6c3cacc197U, 0x3d4a78fb3ce4476fU, 0x3df9090abd1ac948U, 0x3dac4f563da80d17U,
  0x3cf9e5da3cc7e200U, 0x3d50e0763d55dbc3U, 0x3d89be1d3d53c4f0U, 0x3cff8497bce3948aU,
  0x3d73c4863cb6825fU, 0x3d0ff4c93c861989U, 0x3dd8b4053d826f0cU, 0x3d7c88ad3dc7b8b5U,
  0xbd8676c73d13ce3aU, 0xbdc403853dbcd817U, 0xba717f523db9b7abU, 0xbbfded913e097386U,
  0xbd89b2413e32bff2U, 0xbc43634d3ddbcb98U, 0xb9ae25f23e001202U, 0x3c04fe9ebcfc1142U,
  0x3dfa2e323cbad8ebU, 0x3d5a7fee3d5a8d5aU, 0x3e1019cfbd0fc771U, 0x3e1f6059bbbd43dfU,
  0x3d5de9f5bcafb5d6U, 0x3dfbe042bd53b516U, 0x3c6494eabbbfb199U, 0x3e374b873c81e40dU,
  0x3d06b1d0bd1ce476U, 0xbab461e4bd5f3441U, 0x3cd8b24abc8db58bU, 0x3dcee0973d94c850U,
  0x3bb6826e3d91910eU, 0xbda6a3763d9378f0U, 0xbe0d062c3d5fac36U, 0xbcf6a4233d0c5bd4U,
  0xbd95db493d6f53a2U, 0xbd9037a23d8d0dc3U, 0x3cb3fe05bd291496U, 0xbd0f2d1e3c2fa7a7U,
  0xbd30e1b43d1ff5b3U, 0xbca475873d936eacU, 0x3c67874b3cf23c67U, 0x3d92509bbd65922bU,
  0x3dc40eceba479cdcU, 0xbd4bd4f13ca62dfcU, 0xbda579363d46cdd0U, 0x3d0005e2bd120a67U,
  0x3da8dc4bbd2fd948U, 0xbb921c703d7f8c0fU, 0xbbb8ac01bd45ab1bU, 0x3d3015cbbd7d1d9aU,
  0x3d1276a63c9ed1b2U, 0x3d909572bd7f79c4U, 0x3c9009b1bdf2719eU, 0xbd5f1982bd8a57a1U,
  0x3d86b329bbaecfb1U, 0xbdb5f5bdbb80224cU, 0xbe089d653c6b22a3U, 0xbdafd5553c7a9ddaU,
  0xbd2142673ccc80f6U, 0xbd62ceb03cc2d4f5U, 0xbb51e330bd9841e9U, 0xbcc4c013bd8af6f4U,
  0xbd2a6fe9be088674U, 0xbd3b3b69bc5846e7U, 0xbd5e7e66bc407deeU, 0xbdc7d36f3d27c2d3U,
  0xbe332df8bd508f0eU, 0xbe013738bd7a9ccaU, 0xbe31837c3da3802cU, 0xbe3d96863c9720acU,
  0xbda91cd73cdef7c5U, 0xb9ca6160bc623fbbU, 0xbe0d8b2abddd1be2U, 0xbd94c219bdbfb5caU,
  0xbd020c9dbdea28f0U, 0x3dc89db7be7726c7U, 0x3d2a8d3bbe33e488U, 0x3df51b80be5c85c5U,
  0xba23ba41be91045dU, 0x3cb9587fbe3b3e2cU, 0xbd037d4abd9334cbU, 0xbd3dc0c0bcf8ad82U,
  0xbd2972d8bc8934feU, 0xbda1d280bdb1825dU, 0xbe2e4c0f3e1460d2U, 0x3d7a68043dab9d7bU,
  0x3dc0162f3dc65be3U, 0x3da212533dbf0e95U, 0x3d83524a3d2ac648U, 0xbbe991fb3d7e13d0U,
  0x3cb90a1a3da456beU, 0x3cff45963cd57100U, 0x3d285c4f3d18893fU, 0x3da6b8ea3d884c97U,
  0x3cef3cf83db23671U, 0x3d11f057bd016dd0U, 0x3da44ed6bdacb9d2U, 0x3dab2852bc199b16U,
  0x3dd97de0bb10f834U, 0x3dba48243d320fb6U, 0x3c339dac3d1641edU, 0xbd963ce63d04da51U,
  0xbacda1083dc8fb7cU, 0x3cc17aaf3ddc37baU, 0x3cf29ed43dba2dabU, 0x3d78afc63d20bedfU,
  0x3d5983533dcbd749U, 0x3d3c6b043da97af6U, 0xbce5b0643d5894acU, 0xbd46e80a3d02c786U,
  0xbd29c6243d982effU, 0xbb97e534bc2217a3U, 0xbd27132a3a80a8b3U, 0xbc9ed3033d8b1de4U,
  0x3ddf0ad23db70bc8U, 0x3d373a0e3d531078U, 0x3d8aaf843c7141b2U, 0x3daa50dcbd019b05U,
  0x3d0f514bbd39fcfdU, 0x3d14f5bd3b91510eU, 0xbb7734293d4e6823U, 0xbb354d7c3c1c9438U,
  0x3dab473fbb07ee04U, 0x3dd03853bd98d185U, 0x3d475987bd0af6deU, 0x3c840f55bc67682fU,
  0x3da751683c9bf1a6U, 0x3cc9ac543d6f22d0U, 0x3d714af23ca3a4efU, 0x3ccfd954bc5530fdU,
  0x3cab44dfbd896a1aU, 0x3ab9c92dbd7a7053U, 0xbddc0ee03da1853eU, 0xbda1ff8c3d5ac97eU,
  0x3c4421ebbce548e3U, 0x3d4847693caa2b8eU, 0x3d3f21cc3d911538U, 0xbc45e001bbd430a8U,
  0xbdcfbd75bc845f95U, 0xbda1cc0d3da8c712U, 0xbdaf53b93d91a0f3U, 0x3bf406933d2cca36U,
  0x3c719346395901a5U, 0xbdc5cc953c967cdaU, 0xbe1c23433db1fa19U, 0xbd9db3cc3d672a5aU,
  0xbb5c9adfbb785c45U, 0x3c8a8fe2bd990759U, 0x3d856e433c8a83acU, 0x3d1acc5abd9810d0U,
  0x3d3c5a40bd85e8a3U, 0xbd1ff113bd2b833aU, 0x3cddb61bbd9366b0U, 0x3dca03febdd5cde2U,
  0x3dc854bdbde32c61U, 0x3dd9b003bda2b932U, 0x3c6989d1bca87048U, 0x3d8b4c12bd110766U,
  0xbce9e25bbd2ff1bcU, 0xbd90f428bcff9dbbU, 0x3d1da48e3ba62bd3U, 0x3ba1f390bd696851U,
  0xbd8dbe71bccc582dU, 0xbddaec593d5ee497U, 0xbd236ab2bbefbc56U, 0xbc8d495b3d9eb3a1U,
  0xbce4cb663d75da19U, 0x3c96b401bd4fea87U, 0x3b1ee12fbdaa0274U, 0xbda7c9ae3c28e5c6U,
  0x3ccb21deba5e4ce3U, 0x3d823a4b3db2635bU, 0x3d3ba67a3d4bb029U, 0x3d7462733dbe59d5U,
  0x3da8cb2d3dbeddd8U, 0x3cce44ab3cfa0ccaU, 0xbce414efbd6ae93cU, 0xbddb9808bdf89499U,
  0xbe5a1a8ebe60559eU, 0xbe7ac24bbe8f9b6eU, 0xbe7c962bbe7bb768U, 0xbe3da736be61b4c7U,
  0xbd80e7bbbdfbdc9bU, 0x3d8274f1bc924363U, 0x3e0ea4083e239d06U, 0x3e266d453e2144edU,
  0x3e16ff3a3e22cc4cU, 0x3d5dab9c3e07a92eU, 0x3d50cc753d60788bU, 0xbdf42191bc9ff7edU,
  0xbe29c916bdfd8c3bU, 0xbe8900b1be236ab1U, 0xbe89a67fbe8afc41U, 0xbe34576bbe36872fU,
  0xbdc9630abe15ef55U, 0x3c97f76cbc9aacf8U, 0xbc923e173c23d239U, 0x3c71d9043c487008U,
  0xbcc0ffc2bd27b340U, 0xbc8fbe84bdc84b79U, 0xbdd47662bd65dd23U, 0xbbf24c68bde5a876U,
  0x3d49c5ccbb8f6730U, 0x3d1ef4623ca25eb0U, 0x3df45a3d3d99e5b1U, 0x3dff397d3dd806a0U,
  0x3dd3e8783d68ac1cU, 0x3d85ae553ccbc0feU, 0xbd730643bc663233U, 0xbe06a18bbdaf45acU,
  0xbe4b809dbe2286acU, 0xbe46af2fbe3ef3a2U, 0xbe3a642ebe317eb6U, 0xbdb76c58bd1c2dcfU,
  0x3c2fd056babaf147U, 0x3d72ba6c3d45d4d4U, 0x3d3ca3d13d32d8a8U, 0x3caa9bd53d6c09b0U,
  0x3c60acb23c841cccU, 0xbd9161f0bc472a2cU, 0xbd97def2bdb23be4U, 0xbd46b3ecbdf0ae93U,
  0xbc1d0aeabd8771d6U, 0x3c92b2dcbd81c2cfU, 0x3db13719bda63d06U, 0x3d57715e3cc513f0U,
  0x3da2affa3dcb38aeU, 0x3ddc14ad3dca09eeU, 0x3d7f6d3f3df3e60fU, 0x3da6b9063d6ea59cU,
  0xbcf796a13cdae422U, 0xbd7fcc23bcdf2a11U, 0xbdf82a6abd93c572U, 0xbe474c33be22559eU,
  0xbe8583c3be8f3961U, 0xbe262c94be423002U, 0xbe18ccb5be076ca9U, 0xbd0a2999bd962672U,
  0x3dce46b03ab393e3U, 0x3d87644f3d712b9bU, 0x3db088a63e090b93U, 0x3d544e753dd19d4fU,
  0x3cfa20123d368902U, 0x3ba193b7bcc3121cU, 0xbc132872bd253d39U, 0xbd965c80bdbbcaf8U,
  0xbdecf44ebdca2874U, 0xbda09a6bbd14ed66U, 0xbcca19b1bd5e8b02U, 0xbc959108bc6f7838U,
  0x3cb7fc283c717d7dU, 0xbc2990cebd15fccfU, 0xbcbafb6c3c84f2d6U, 0xbd223bfbbd66185fU,
  0xbd9b839dbd51e2b1U, 0x3da3d9763d9a8bf6U, 0x3d24c0d83d4ca3dfU, 0xbc9389753cc8692cU,
  0xbd998bd9bd3100f6U, 0xbe27b9b9bdaf2869U, 0xbe71f19bbe07667dU, 0xbe9710b0be82bd24U,
  0xbe4de030be8605d9U, 0xbd9b1e3bbe3b4f5cU, 0xbcfb87f4bdee0d63U, 0x3db7ee6d3c5a7915U,
  0x3e15afe23df3bf43U, 0x3e333f7d3ddd4f34U, 0x3df15bf73de83dfcU, 0x3e07a9283dd8457aU,
  0xbca30d2a3db7e828U, 0xbd53fbcf3ced3167U, 0xbde71a59be02c495U, 0xbe86a6b0be4d56ecU,
  0xbe51653cbe6d5c79U, 0xbe372fa9be78fe0fU, 0xbd502e1dbe2b1dc8U, 0xbd993544bdef6e15U,
  0xbd1e5e64bdbbff9fU, 0xb91ee4c6bc629002U, 0xbc08dc13bd0c89a4U, 0xbcf742483bc50918U,
  0x3d28f015b96e4741U, 0x3d367cbebcbbfb40U, 0x3d13c9403d0b31b0U, 0x3d0bd3693d672dfdU,
  0x3de3d09c3d8065f1U, 0x3da943113dbb636bU, 0x3d01ccfb3d324a67U, 0xbd0498063bf615ddU,
  0xbd706028bdac54efU, 0xbd84e4dbbd565627U, 0xbd0e37dabd7226fdU, 0xbb86a551bce6bc91U,
  0xbd5d37e7bd19dac3U, 0xbd3d56dbbd5a7aa4U, 0xbd16a001bd71cd67U, 0xbdd2edeebcdb6710U,
  0xbd2867e4bdd569baU, 0xbdba16a5be034968U, 0xbde9c8debd6072dcU, 0xbc2e278cbd24696bU,
  0x3d08a8cd3d3f9b62U, 0x3d80fd7e3da8592fU, 0x3e1dd82c3dd35007U, 0x3dc376fa3e0b668fU,
  0x3e15ba963daceb79U, 0x3d6e274b3d7a72d0U, 0xbd97cf60bce27915U, 0xbe0e57af3b834e22U,
  0xbe8facc1be13d328U, 0xbe72de86be51ab03U, 0xbe8aebe8be54825aU, 0xbe3f3adbbe551d5cU,
  0xbd92b9dbbe42b074U, 0xbcb9772fbd9b2a9dU, 0x3d934c553cc6fcb2U, 0x3d81dadd3da10f7bU,
  0x3da7f21e3dfb0371U, 0x3d8f8b023d8b4ec1U, 0x3bca9a563d46e16bU, 0xbd24bbd03cbba69bU,
  0xbdb81514bd9630dbU, 0xbe0be97cbd6687a4U, 0xbe09d50fbe0da03cU, 0xbe1f47ffbde199feU,
  0xbd744bedbdcc2db5U, 0xbd32e50dbce1963cU, 0x3d25713dbd0234eaU, 0x3d5e21b23ce8bb2cU,
  0x3bfd83e53d83f8d0U, 0x3d1c68393cde0913U, 0xbcc6e747bbf84831U, 0xbbf6b44d3d094276U,
  0xbd318052bc5285aaU, 0xbd8ae87abdb7bab9U, 0xbd4e60eebb933867U, 0xbd48ceffbd25c313U,
  0x3cf90f87bbc3da37U, 0x3d280e093cd8710eU, 0xbe1fc52ebe13e44dU, 0xbda252acbbcb9a93U,
  0xbd361f14bd8e6b71U, 0xbe55b46abda53c02U, 0xbdeb90283d1b6d69U, 0xbe42ac683b91a0a6U,
  0xbdaae9eebd64dd00U, 0xbd17c293be06182aU, 0xbd8f2607be0803bfU, 0xbdb73f03bdc39760U,
  0xbdbf4a7cbe0e5691U, 0xbe0b9a50bdb56424U, 0xbdfa7dc6bd8d14aaU, 0xbd1d5c9bbcf814ddU,
  0xbd6e35bcbd8669b7U, 0xbd85c6d5bea3da94U, 0xbd3feed1be64bd12U, 0xbe51925ebe14ba95U,
  0x3cb4adb2be4c52a6U, 0xbd6080d3bdf8d791U, 0xbe041380be071db2U, 0xbde21161bce53638U,
  0xbd71ffadbc79b2b7U, 0xbe2323ecbdba4226U, 0xbe0a1c48bdc80a74U, 0xbdb54d3bbd6705cfU,
  0xbd6810f7bd2aa946U, 0xbd069f5abd8aa7f2U, 0xbda6e276bd8b5d04U, 0xbdeb792bbdb796faU,
  0xbd2c90e33ad5f914U, 0xbe2702ce3c3cb3d8U, 0xbe45d97abdaa02e7U, 0xbe08d82bbd80e6aaU,
  0x3d126b5dbd28e25bU, 0x3cbaaacebd993250U, 0xbdb15190baeb0252U, 0xbc474d76be0868d6U,
  0xbcd24284bd6dfc6eU, 0xbbe95e9dbd799230U, 0xbd0c87bbbd025296U, 0xbd5acb71bdc0f9b8U,
  0xbccc5af4bdb4b590U, 0x3dbdfb97bd6e9486U, 0x3becedb4bd40b2fdU, 0x3c276366be4d8167U,
  0x3d2fd077bd1886bdU, 0xbd0ccdd83dc50d82U, 0xbde03509bba7098bU, 0x3c8c4ab23d0cab3aU,
  0xba872ed93c4de69cU, 0x3dd4bc37bdd86498U, 0x3d30d3fe3acb232eU, 0xbbd57c26bda7fc66U,
  0xbbc72d1e3d531231U, 0x3d1743a33df4b0d6U, 0xbdd9f4753cf29d66U, 0xbdf29d543d2a426dU,
  0xbdb55f873ddde840U, 0xbc0620f13db373e6U, 0x3d540ab9bd3b3c71U, 0x3db647053d8ba414U,
  0x3dc87b273d8a2ffbU, 0x3d4a14013c87c57cU, 0x3d94163e3d46c42eU, 0x3dd25a883d1d057bU,
  0xbcec24d93c1c9552U, 0x3de91cd53dc8142aU, 0x3dc8268f3c9dda6dU, 0x3dd20eb8bd4c1803U,
  0x3e1a2c053d2143d9U, 0x3de054133d31a83eU, 0x3c013eae3d308d35U, 0x3daf36633dc13a05U,
  0x3d5577f93d23c29fU, 0x3deba1ed3d4c38c1U, 0x3e2d46b53d8b2b3bU, 0x3d9290613d133cadU,
  0x3d418fe8bc89dab7U, 0x3decc68a3cbe690bU, 0x3d90e1583dc14479U, 0xbc50cb7d3d437bf2U,
  0x3cf75e093db28ae1U, 0x3c92ebd73dea1887U, 0x3d8df1dd3e07bf70U, 0xbd077d0d3d2c21ebU,
  0xbc1bb97c3b59bfe7U, 0x3d8d7c2d3be6dd4eU, 0x3d12824e3cabcf6aU, 0xbd0525f53d795ec9U,
  0xbd45bc003e177a3aU, 0xbd0a08463d3d8768U, 0x3d16f0893d144dacU, 0xb8f36e263bb48c5bU,
  0x3d09f920bd581b05U, 0xbd52e831bcc20067U, 0xbc2aa3cc3ba337bdU, 0x3daa163abd1e3f2fU,
  0x3db667823cb70a67U, 0xbd0b09953cda4b2fU, 0xbd37420dbcc3dee1U, 0xbd2581ba3b27c416U,
  0xbcc061bebdabdbd0U, 0x3e1c95a2bc84f3e7U, 0x3dbfd7e43dbea82fU, 0xbd9492633c249608U,
  0x3ca543b83d282d83U, 0x3d5bd1b23d01a167U, 0x3ce8f1c1bd38b3adU, 0x3d1c94453b2103f6U,
  0x3c66d3a03c0cbf1dU, 0xbbb8e5d83ca68856U, 0xbd8d29af3d826e52U, 0x3cceb1203c363816U,
  0x3cb3fcce3cd1a904U, 0x3d2356d8bc3f2e59U, 0xbcf5f3583d59c0b9U, 0xbceab9ccbcd7f8a4U,
  0xbd232c95bca4dca9U, 0x3d764ee3bc4edb13U, 0x3c820b2e3ca1df2bU, 0xbce58d7b3bcb363aU,
  0x3bf04926bc08e044U, 0x3c5645573da03787U, 0x3d8314243c26ba9bU, 0x3db1a3973d372fd3U,
  0xbdb3797c3d7f853dU, 0xbd4f5b683d47c9c8U, 0x3cd048743d12c85eU, 0xbb0403173cd69840U,
  0x3df2f14dbd522b77U, 0x3d6032deba1b7814U, 0xbc45ad853d6565c5U, 0xbd94dc823db323baU,
  0xbd089cbc3cf4130dU, 0xbc920e5dbcc044e8U, 0x3d3dac8338f087beU, 0xbc8b54753ca89c40U,
  0xbc31598d3d4d0bd6U, 0x3cda880a3d7a3a20U, 0x3dc623b43c4ed6beU, 0x3d4a97953d7727c1U,
  0xbdcadc953b4f2b93U, 0xbcdcdea33d995218U, 0x3ce8a35b3b441e42U, 0x3e0998b9bcd85f80U,
  0x3da8d2eb3d06a25aU, 0xbb95854a3ca054dfU, 0x3d050ebbbc315985U, 0x3b93afc43dddaa5fU,
  0xba164e703c3db5ccU, 0x3c43b897bb3be465U, 0x3d98591abc232030U, 0x3ce5fe09bd09ba5fU,
  0x3d6ec991bcdab52cU, 0x3ae6c9173bca42c9U, 0xbc5c61613cb1b1dfU, 0x3e0181a13d37fbc5U,
  0x3ce639823d5f4b61U, 0xbd7e90b5bcfab7dfU, 0x3c0d942c3c251f2aU, 0x3d9d05243bb7c1e3U,
  0x3d69951b3d37b02aU, 0x3c40b00e3cf985c7U, 0xbd4c7e17bafdf98aU, 0x3a15bc393e04f155U,
  0xbc37b6293d81d644U, 0x3d58d7bfbc2ceba7U, 0xb77cfc883c92dc80U, 0x3d6181eebb45ace7U,
  0xbc7f1f16b9b71df8U, 0x3cd14570bb08a3a0U, 0x3d7a72fb3d5b622eU, 0x3d4ef2fe3d15da3cU,
  0x3d6784173d134e3aU, 0x3d5d50a93d336e2dU, 0xbb113faabbfdce65U, 0xbd8073a0bcaedabbU,
  0xbdf06b60bd9d6bdaU, 0xbe6478c1be234a5aU, 0xbe4d7cb3be625b04U, 0xbe00290ebe207467U,
  0xbdea0041bdf487d1U, 0xba202082bd9f0473U, 0x3d45cf8d3cb6436fU, 0x3dcdffee3d349723U,
  0x3db1200c3d8f6f42U, 0x3e135e6a3dc67c69U, 0x3d8458763d4d1a88U, 0x3cae21de3dac504aU,
  0xbbba9f1a3b88a7c9U, 0xbdc81696bc86182eU, 0xbe2cd69cbdc9d493U, 0xbdff1f8bbe2e4339U,
  0xbd82d561bdc4fb82U, 0xbdbd6bcabdd94086U, 0xbd792673bc3d41d1U, 0xbc925ccdbbe308ebU,
  0xbcb91651bcabf6d3U, 0x3c917a8e3c8daf69U, 0x3c3c2c2339ac4812U, 0xbd63c1193d849740U,
  0xbccb19c0bd00782eU, 0xbcce93113d0c1ad7U, 0xbb050a7abd8f76efU, 0xbd066084bd4ed7b5U,
  0x3b8307c1bc6ff98bU, 0x3a4617133d452ab0U, 0x3daa3d6e3dd7e684U, 0x3d571fb43cfdc452U,
  0x3ce3411b3db06da8U, 0x3ca00ac03c1bae0aU, 0xbd5d58dd3d90f676U, 0xbdf0170fbdc5fc20U,
  0xbd8cf260bda16a82U, 0xbda07eeabdf4ae5aU, 0xbd16e818bd4fa70eU, 0xbd95cfb2bc8ccc84U,
  0x3c994644bdafef37U, 0xbc9d5fef3d1443d2U, 0xbc9e5f35bbf92804U, 0xbb0fb670bcd3bc37U,
  0xbd6695e5bd368011U, 0xbd5b401dbcd21499U, 0xbd1cc533bd1563c2U, 0xbd38c96dbd143879U,
  0xbc14b5edbca0b8bfU, 0xbd5526d5bc2231d0U, 0xbd28d57abc8afe6cU, 0xbc1d78253cd07aeaU,
  0x3c2f03f7bb7d9315U, 0x3caec0173d714ea7U, 0x3d5c7de53d53f5ceU, 0x3d7c502f3da79da7U,
  0x3deaa52c3d57f51dU, 0xbb66b5013d2b2fecU, 0xbd546031bcd7cbd1U, 0xbd9e2d64bdd09cdfU,
  0xbe464768be2fc34cU, 0xbe8858eabe088990U, 0xbe91b9ddbe2f2c34U, 0xbe334a9ebe867e2fU,
  0xbdbb98d3bdf87484U, 0x3caf49b53c8d9cdcU, 0x3dcb0c4d3de274cfU, 0x3e3a67953e34c0ecU,
  0x3e32f2f03e4b076aU, 0x3e27e3113e4e624eU, 0x3e07459e3dfaaf7cU, 0x3c66c1eb3c604c70U,
  0xbe17491dbdf97b51U, 0xbeb6a88bbe53a59aU, 0xbe90fc65be9e5d1bU, 0xbe838bb1be9209adU,
  0xbe263c4fbe6cfe00U, 0xbe0d6c42bdae3107U, 0xbd95764fbd7a50e3U, 0xbba646cebdf75909U,
  0x3c0f62ef3c3f0236U, 0x3d9c63d63cdbc48eU, 0x3dbc419c3db5e386U, 0x3e14023f3dc70436U,
  0x3d618ca83da32a73U, 0x3d36d7583d0c4cb4U, 0xbd94c6983c8fab7eU, 0xbe14c58dbe073039U,
  0xbe70920cbe2fb562U, 0xbe8378a1be425837U, 0xbe10ffc9be4d0ed2U, 0xbdcc46d6be20d459U,
  0x3c9acdc0bd84be68U, 0x3d4153ae3d7ecbccU, 0x3d3591993d96ce13U, 0x3e15e1583d758bd2U,
  0x3d2fb6913d15dbeeU, 0x3ba7b0693d3feab4U, 0xbd55e9a6bda3071dU, 0xbd99a863bd8fc3d0U,
  0xbe154ceabd175387U, 0xbdb03e8fbdd54c0bU, 0xbd27b05dbdfeba9cU, 0x3ca1386dbccb7696U,
  0x3be35ba1bd471627U, 0xbd1376d83c10af4dU, 0x3c2d37b0bcc12d32U, 0xbd055a59bcf2ef7cU,
  0xbd91dfbdbdab7a80U, 0x3cccbb1abcc1d5bfU, 0x3d2cf24b3cba1242U, 0x3d83a36f3d5c97c2U,
  0x3d9a5a8a3d7240f4U, 0x3d77a9a23dabdcccU, 0x3c9f0b1c3d8cea8aU, 0x3d2496113d5305e7U,
  0xbce39dd2bd85341fU, 0xbe30d78fbe280abbU, 0xbe324e5bbe2fb5c7U, 0xbe1622c2be857259U,
  0xbe1deb04be8c923bU, 0xbdbd6c9dbe062393U, 0x3c44bd3fbdafd023U, 0x3dbaffac3cf22462U,
  0x3ddfa5303dca67caU, 0x3e01df203e0e805cU, 0x3e010dc23d889cddU, 0x3d81abb13dbadbd9U,
  0x3c4594703d3c60abU, 0xbdc8048cbdcebe96U, 0xbe3bc94ebde961c8U, 0xbe90b7eebdd6971dU,
  0xbe1c3b47be3b7ab6U, 0xbd8fc7bbbd9ed1b8U, 0xbcbc7a01bd64d243U, 0x3d59c8cbbd0bd71cU,
  0xbbb654393bc74968U, 0xbd2fc87bbcf8fe76U, 0xbd1cd00dbd858d91U, 0xbd61d00abe007aaeU,
  0xbde7554ebd781950U, 0xbcb9a52abd8f3b4dU, 0x3c98a9a6bd3abd3dU, 0x3d87939b3cd102ceU,
  0x3e10ba153dc7a54cU, 0x3e0324f63de5829bU, 0x3dcc6a483e0b3449U, 0x3d3a16713d71092eU,
  0xbdc3fa1cbd6cbe94U, 0xbe6d5c8fbe2c4326U, 0xbe98f17abe775e08U, 0xbe846805be90cbddU,
  0xbe857024be4ecfeaU, 0xbe06f067be1c015eU, 0xbc89cf22bd5580b0U, 0x3daeca913c35d88bU,
  0x3dd194cb3da99dbbU, 0x3dba30b23e081a0aU, 0x3d97bfc83db9f7dcU, 0x3cfa77533d552407U,
  0xbd32b6b4bbaf551fU, 0xbc95c137bcbce94fU, 0x3980ed4cbe0236eeU, 0xbd21d7ebbdaeee13U,
  0x3b042700bd98e6e3U, 0x3db3bfd53d0803f0U, 0x3e27a7bd3ddf9ff8U, 0x3e19a9023e091e36U,
  0x3e2eae673e1f160aU, 0x3d9530f63d8bc4afU, 0xbe0f315abc8bdd77U, 0xbe24dc43bde3124fU,
  0xbdb2b5b9be38811bU, 0xbe0ea453beb1e6eaU, 0xbd8681d7be65ed69U, 0xbdc9d69ebe7935beU,
  0xbdf04d0cbe328b4bU, 0xbdd627babba3c60eU, 0x3d1decc93d1d5270U, 0x3dab4d123d08b97cU,
  0x3b58af3dbd2d75e3U, 0x3cca2ceebd80cc0fU, 0x3d067282bd9a94a7U, 0x3d7d47a83cd8fc3dU,
  0x3e1737263d50694fU, 0x3d6dd3613c249390U, 0x3d40a0cc3cc495f8U, 0xbdb67f2b3dd05d3eU,
  0xbd9189c3be3fc565U, 0xbd03eec4be6e9e3dU, 0xbd869bbcbe06b400U, 0xbd57cab6bcfe7bccU,
  0x3db1f116bd7346aeU, 0xbcb45f733d92d99dU, 0x3bb2545b3e0a1000U, 0x3d2111b53d4e9705U,
  0xbe1c018fbd530f22U, 0xbe4b94cfbbe21d34U, 0xbd839090bc11eccdU, 0xbe652fe1be7295e9U,
  0xbe2d4fdebe268342U, 0xbe0fb24bbcedaf48U, 0x3e016e42bd13c9d8U, 0x3d9518313e42dca8U,
  0x3db53ab93e49b6afU, 0x3e40ebc33e03dc0cU, 0x3bd220923c9e0fe5U, 0xbe2962343cee17b6U,
  0xbe53c9a1bd8daf62U, 0xbe70b643bba4e89bU, 0xbe34d0293c1dabc6U, 0xbde12868bdb99957U,
  0xbb426155bdbe0ab7U, 0xbdbb14b2bd9610beU, 0x3e0fb9d23d88eda3U, 0x3de51a443db9940eU,
  0xbd4ede823e150cc1U, 0xbd2ee28f3e3d4982U, 0xbd5c6b25bd4bba9cU, 0xbdda967dba857bf0U,
  0xbde5b82fba03a0e3U, 0x3c231592bdeee6ceU, 0xbde7d6ccbde8e9c6U, 0xbe14bf0abd9a0909U,
  0xbd0a41c9bd69ae08U, 0xbe1620ffbd7b7c9dU, 0xbcf14b333ce39968U, 0x3d7a7bdc3d88387aU,
  0xbca095f9bd7f9c21U, 0xbdd7f24ebcd55d49U, 0x3d379aea3ccfb7e8U, 0x3d817ec8bd17caeeU,
  0x3c795e9dbaf3ca12U, 0xbd5a62c33b007d35U, 0xbd7094a9be54ff68U, 0xbe02de78bd4f6c64U,
  0xbd99d34ebd2943c2U, 0x3dcc5011bd3da97eU, 0x3d94962cbce57fe1U, 0x3cb4554ebd88ba9aU,
  0xbd64e376bd037858U, 0x3c4dfa12bd7608a9U, 0xbc85cbd6bd2ef0dfU, 0x3c66c11bbc1eb152U,
  0x3c48bf62bd3bf2ccU, 0x3becc1c6bd90bc27U, 0x3d2ec916bd60790aU, 0xbe20750a3db23da3U,
  0xbe5bf9463e1118f7U, 0xbdde3c653d595559U, 0xbc0f4a4c3d9b8483U, 0x3cd66c803d84cdc1U,
  0xbd1abdfb3d1b1c70U, 0x3d19f26f3d39907fU, 0x3c28caacbd82fc56U, 0x3ddfc5fabe26b318U,
  0x3da23597be091818U, 0x3d6dd336bd9295f1U, 0xbcc08b43bc18a562U, 0x3c0a12f8bdf1e1a9U,
  0x3db34542bcaab39fU, 0x3e00e7363cfadedaU, 0x3b29faa7bdebb064U, 0x3d6b4934be0e84c6U,
  0xbbc76f793d2a8efdU, 0x3daf666a3ce6e131U, 0x3cc54fac3dab2748U, 0xbe0aa12a3d91c2f2U,
  0xbe17fc043d3730d9U, 0x3bf3f1ab3da2a725U, 0xbda29d583d45f9d0U, 0xbdd2693b3b9f8efcU,
  0x3d0072043d95eb79U, 0xbd72628c3d82102bU, 0xbd8d42d43d87f42bU, 0xbd0f34e23d773b1bU,
  0xbe07e4093c6d16c5U, 0x3b14c68a3d1cb7c1U, 0xbced98cf3de6dd27U, 0x3cb2ce7abc3e899bU,
  0x3cceb95abdff286eU, 0x3dd2b84ebda0112aU, 0x3d6f74653ca091f6U, 0x3a1c00e73b9500faU,
  0xbd5a37a23d594f83U, 0xbdafcd443dc5bbf9U, 0x3db90cf73cb6220eU, 0x3d084019bd905bd5U,
  0x3d0eacdfbd980a85U, 0x3dc8a219ba803d90U, 0x3dbfb909bd311972U, 0x3e0b370abd97e7dcU,
  0x3c0bb386be07a908U, 0xbc98ecaa3d0dd0b5U, 0x3c12d16e3e009408U, 0xbdb1bde1bc17ca96U,
  0xbd47cc5dbbc45efdU, 0x3cc8b04f3b021acaU, 0x3d75665fbbe0418bU, 0xbd9c05bc3d9492a3U,
  0xbcd7fb18bd0d2ab6U, 0xbc9e8fb0bc968086U, 0xbd94290e3dfa1416U, 0xbe12df183e0db356U,
  0xbe3ebb743dc17178U, 0xbde413023dc73815U, 0xbca3082a3d90502dU, 0xbd1663483c78916aU,
  0xbc7296e2bc115de3U, 0x3c8ed6ed3c0a6ddaU, 0x3b647c2b3d0697a3U, 0x3e0f4840bc44b4f8U,
  0x3d9fe5fdbe13dbb5U, 0x3cf9cc31bdaf6bb7U, 0x3d47550fbd97e29cU, 0x3d955510be763be4U,
  0x3dcd1402be3e2e55U, 0xba84371ebd1c7410U, 0xbc3d4ff4bce7a8cdU, 0xbd7e007b3d78fe15U,
  0xbdc02bc63c30703bU, 0xbd02f8123d4be36dU, 0xbd6c2c1e3d337778U, 0xbd2b8c69bcb46225U,
  0x3aa06d3fbd1f66c3U, 0x3c33bb0abde63a1eU, 0xbd2a3516bc405d28U, 0xbc709f9d3d35bf65U,
  0xbdbb4d29bca46e98U, 0xbde641973dda4ae1U, 0xbe2fcdc43d4dcc42U, 0xbd481a153dc47f0cU,
  0x3bb4661fbc3ad4edU, 0xbccef1a3bd99c817U, 0xbdc6b86abdb24dd3U, 0xbda2a39bbe263514U,
  0xbdd9fa3dbde78130U, 0xbe057f2abdc45baeU, 0x3b9cba36bd815852U, 0x3cafcf9dbcad1284U,
  0x3d3a72343d1a0a82U, 0x3d7315c83d534325U, 0x3d96c01e3d56dfe1U, 0x3cf014483bf69877U,
  0xbcd08ee3bc9ae466U, 0xbcb79cb33c00bebbU, 0x3c9bd9df3b170f3cU, 0x3b18500abd1d19efU,
  0xbbc15dc43d19db4fU, 0x3d0ee2683cb3469fU, 0x3be007c13cdead8bU, 0x3ce6a9863d14ebc1U,
  0xbd59c1b7bc139b49U, 0xbdb701ffbcaf3e42U, 0xbdcfc57dbe002ad2U, 0xbdfddd49be3f7d3fU,
  0xbe308510be53dcf4U, 0xbe22f0aebe2ef7eaU, 0xbd365994be1630a7U, 0x3ccdbfa33ba2b1d9U,
  0x3dcc95533ccf87feU, 0x3d7679403d9431aaU, 0x3deb928d3e239248U, 0x3dea32b83db8d51eU,
  0x3d8df2be3de28e57U, 0x3d5340c23d89f7e8U, 0x3d75378f3d01fdd7U, 0xbd9bfae1bd2b90b1U,
  0xbe0d81f8bdb4dd10U, 0xbe1d67e4be2b6b48U, 0xbe4308e1be6a4a72U, 0xbe304e30be105bb7U,
  0xbe6f8e94be25cfedU, 0xbe4f8f42be4f7d25U, 0xbe5f19ddbe20f7e2U, 0xbc9cbcbbbdb0b730U,
  0x3dd369b2bd548c8bU, 0x3de2ebfc3dcba437U, 0x3e43fd673e2340b9U, 0x3e31beb93e384c41U,
  0x3e26c88f3e344351U, 0x3dbca00b3dcbdd16U, 0xbbb1efaa3d64d383U, 0xbe2c2107bd527a04U,
  0xbe8035ebbe298ed7U, 0xbe9ba5d0be8d17d7U, 0xbea2ce1bbea70e21U, 0xbe8eefb2beab3c82U,
  0xbda08dc5be3bfb3aU, 0xbc001356bd2fbd51U, 0x3db04ce83d9336c5U, 0x3d704c303dcf9b6aU,
  0x3df139c13e11d206U, 0x3da783c93d814a0bU, 0x3d1138943d770118U, 0xbd525962bd7053f6U,
  0xbd4b93a3bd3273e3U, 0xbc9be9fcbd8514b9U, 0xbdc4b41abdac52d4U, 0xbd5b4509bdc6eafdU,
  0xbd258549bd29bb12U, 0xbb2d9f71bc7e2d51U, 0x3d5d605a3cb96bfaU, 0x3d384af93d600b33U,
  0x3cb11b2a3d151cd3U, 0xbbdff212bc5ceb11U, 0xbd58d070bd729a2cU, 0xbdbe4addbd26932fU,
  0xbda5dc56bd744b00U, 0xbd9fffafbe034fb7U, 0xbdac0703bd89503bU, 0xbd3ec421bd7783cdU,
  0x3bf04b90bb143c2dU, 0xbb8c960cbc9cc96aU, 0x3c28262d3d48a027U, 0x3cddba143d3ce21bU,
  0x3d3f5a8e3d35b6aeU, 0xbb6698dd3cfe9b1bU, 0xbd360e083c378673U, 0x3d821329bc9e1d75U,
  0x3d8b1b883bb716d3U, 0xbd1d6d753d734facU, 0xbdbc821f3e316070U, 0xbd2d07853d8a3818U,
  0x3cad7d6e3d2e12b7U, 0xb9e80b6f3d3f7b54U, 0x3c3644ecbd4f1dc1U, 0xbb508796bbaca8a3U,
  0x3d2d8ab0bd39814cU, 0x3d811c27bcb729bcU, 0x3dae8ae03ceeaa7eU, 0xbd625f163be2ff00U,
  0xbdb2b41d3d0e203cU, 0xbdc14c4f3d8bb3ccU, 0xbc07d2c7bd0e92e4U, 0x3dddf56cbd358d32U,
  0x3dd546a83d43b275U, 0xbcd6d3da3d04d95aU, 0x3d302fdabc8da079U, 0x3d0ea2acbd8f2254U,
  0x3d2258b0bded4ad3U, 0x3d704513bc29d784U, 0xbdc4dec73c859b4bU, 0xbdaa853abb335fe8U,
  0xbd99aa6f3d68410bU, 0xbad1d48fbcb1ce76U, 0xbbbbf4573a3757aeU, 0xbd1775523b0445a4U,
  0xbd53bcf23c5e4296U, 0x3c2eb968bd6dfd01U, 0xbd78d275bd894933U, 0x3db909e1bd21dcdcU,
  0x3d506e0e3a2e06a9U, 0xbd4228d83b0bb15eU, 0xbd6b53e83c2a1459U, 0x3d52d27e3c826dd4U,
  0x3cd5c5eebd5eaa0bU, 0x3dc0a47f3d127394U, 0xbd9570e83d775ce9U, 0xbdcfa9b43df80c22U,
  0x3c8a6977bd1e8687U, 0xbcfb16453bfc0ba5U, 0x3e0123f63ccc2ba1U, 0x3daf86163c48091eU,
  0xbc27f8623c7cf0c2U, 0xbd6267103b2ddc71U, 0xbceff5f2bb806d02U, 0xbd9301443cc501caU,
  0xbc6f64e73cb1597eU, 0x3c5594203d8de014U, 0xbc1b26ac3db29c65U, 0xbcedd67a3d8207ccU,
  0x3d999344bd19f2d9U, 0x3dd088ef3ce3dcaeU, 0xbd09973b3ca75db5U, 0x3c0cc73c3c6a40ceU,
  0x3b7ba043bcc8557bU, 0x3da80eacbd2c0155U, 0x3d330d573da1588eU, 0x3c62bdd13d3cb7caU,
  0x3d43caf63c251c1fU, 0x3b93d01d3d06a810U, 0xbc8df66f3d09fe5aU, 0xbc29f2003d1eba7aU,
  0x3dda9327bbcf9f21U, 0x3ce0ef9fbccf4304U, 0x3dedf39abd778fabU, 0xbaf22b7c3d1d6745U,
  0xbd859f903da5997aU, 0x3df4be543c46a99aU, 0x3da5adf73cd45a7bU, 0xbd61c20abd5a2f07U,
  0xbcc2ae563d84d6a1U, 0x3d74298c3c4230ffU, 0x3db6adfc3d63614bU, 0x3cd943993db99646U,
  0xbca5dfe03d1c1c3eU, 0x3cd755143ceb4e5cU, 0xbb2586933c5af776U, 0x3da44cfd3c93735cU,
  0x3c897bb63d4b17daU, 0x3e034f673bb74923U, 0x3d513827bc9bd07fU, 0x3d4edd513d9e1fdcU,
  0x3db1b52b3da7eea4U, 0xbcfcc2c13e13cd5dU, 0xbcd2cdbf3db5a0f0U, 0x3b8d99323e023840U,
  0x3cde91413e171555U, 0x3d999f683dc4ca90U, 0xbbabea633d36829eU, 0xbc8ba7273db5a5f0U,
  0x3d4dbaa23d9ef392U, 0x3d54568f3d0a1485U, 0x3dd244733c8e095dU, 0x3d6682683dc4413aU,
  0x3dc87c6bbccf2af5U, 0xba2ecfb03d00823aU, 0x3dd26a113dda619eU, 0x3cb8516cbda34bf2U,
  0x3df823aebdf7656aU, 0x3dccb51a3cd9ad28U, 0x3d98d8ef3dbaf938U, 0x3d823573bdaea0daU,
  0x3dd37a51bd2ecd32U, 0x3d7451bf3a67c945U, 0x3dc320febd8d5a18U, 0xbca5d87cbd4a9fcbU,
  0xbd94747b3d07432bU, 0xbdeff7753d837c5eU, 0xbce97a693e07c741U, 0xbde169393e19c4f1U,
  0xbcad92c03d95d0a4U, 0xbc6064c23d372743U, 0x3d9e01193cbc7083U, 0xbccc1241bca4d0baU,
  0x3e1662fa3c51bd57U, 0x3d63aeaabd5dcb10U, 0x3cdec3073da3df38U, 0xbce6aa583cb7938bU,
  0xbdfc40623c58ceb2U, 0xbc5f90383cf70cc5U, 0xbd16779f3e0c2229U, 0xbd522a063d911d6cU,
  0xbdb178493d2c7a54U, 0xbc6e5cb4bd8e26fcU, 0xbd1512abba061fadU, 0xbca5c870bcbd7194U,
  0x3da15428bdf78a09U, 0x3d40d529bdf2af61U, 0xbb80d5f6bdfa006aU, 0x3d52c478be48a402U,
  0x3ce8abb7be5b4863U, 0x3cc4ced8be3b73e7U, 0x3c3d1c4fbd49571eU, 0xbd353fef3bf9a594U,
  0xbdc40b85bd83a8edU, 0x3db47e6ebd0779fbU, 0x3bba83afbceae5e7U, 0xbcc12258bd92b203U,
  0xbd84035e3d117d3cU, 0x3cdfd315bcbfe378U, 0xbd37f2a2bd7b8cd6U, 0xbe3013de3cb05810U,
  0xbde149df3d60abd9U, 0xbdf92f693d4ac90dU, 0xbe2d53d13d20a579U, 0xbe6143f93d399b4aU,
  0xbdc55cf6bba05671U, 0xbcd2742c3bea96f3U, 0x3cc594a43c7ecffaU, 0x3cb2c1a8bdc4c6a3U,
  0x3d62b39ebe55d93bU, 0xbcaa74d0be4242d4U, 0x3cfcdfebbe1de445U, 0x3d4245c6bd8b6a9dU,
  0xbba6fcc0be5efc50U, 0x3cc67fcebe890628U, 0x3c846b99bdbdba35U, 0xbe15cd883d9c3102U,
  0xbddb5508bc11323aU, 0xbd653868bd5f06ecU, 0xbc8219a7bd11fc7fU, 0xbd276a4c3da793bdU,
  0xbd95c2483c5641ffU, 0x3cb22c9abd81e458U, 0xbca6ff86bdec05d1U, 0xbd01e5e8bb14be22U,
  0xbdb29f23bd895e93U, 0xbdbf4c98bdc62881U, 0xbdd2c80dbd4afd1aU, 0xbd1578ebbcaec223U,
  0x3c3d40cdbca6a7a0U, 0x3d2b13f6ba8834b2U, 0x3cf40b88bc034c06U, 0x3d594b143d8f862cU,
  0x3db1e5f23d81cf29U, 0x3d918ae63dfed5e1U, 0xbd8b30c73c45b463U, 0xbda67e453add776bU,
  0xbe20f160bde9342aU, 0xbe21a083bddf27d7U, 0xbe772ffabe0832bfU, 0xbdd68f9fbe21cb7fU,
  0xbd85388fbdd8349bU, 0xbc266a77bd9a8eafU, 0x3d695c473d06c1e5U, 0x3dea334a3da67963U,
  0x3e15a9cb3de95317U, 0x3dc3bdae3df704cdU, 0x3db3657e3dbb80ceU, 0xbcff3586bc388b5bU,
  0xbd049c95bd95aba9U, 0xbe820f13be3123cbU, 0xbe88be62be5dfea6U, 0xbe91cb74be8801dfU,
  0xbe129bdcbe64d95cU, 0xbdf42b6ebe29e79aU, 0xbd98ce75be25c50dU, 0xbcf92a413caa6b50U,
  0x3dd859063d6b8706U, 0x3d83a1963ddcf44bU, 0x3e0c77e53e05a9dbU, 0x3e0ba29c3de7b754U,
  0x3d9b75293e00dc41U, 0x3c99480e3d387879U, 0xbc671a463d8b8151U, 0xbe134ca0bd7b2177U,
  0xbe46b9cbbe1f3f4dU, 0xbe7b992fbe820c0cU, 0xbe95e2d1be870ac9U, 0xbe273080be560aedU,
  0xbe2c93ccbe1e93caU, 0xbd696fa4bdf81a9aU, 0xbcaceaa9bd2867cdU, 0x3d58f31e3ccee64fU,
  0x3cfce8db3cf0aa78U, 0x3d900f393da555afU, 0x3dd837693dc0e805U, 0x3ddcc37e3da3e234U,
  0x3d06892c3da17aceU, 0x398fa23f3d736c8bU, 0x3b3b97603c87f718U, 0xbb02b701bd44dea9U,
  0xbddd92f2bd629534U, 0xbd05a033bd6ca47dU, 0xbd3d02d73a837fbdU, 0xbca62e4fbc5b4d69U,
  0xbb4b73ee3bbd2875U, 0xbbbe84943d17441eU, 0xbdef1900bd683d90U, 0xbdc9e115be02641cU,
  0xbd6f7877bdcf7c19U, 0xbe202dd0bda616ceU, 0xbcf72332be0b91ffU, 0xbd06375dbd3291faU,
  0xbb31693bbc0bd962U, 0x3daa5c363c33d59eU, 0x3e079cbd3dead593U, 0x3e212a153de60045U,
  0x3db5beba3e0e08f2U, 0x3dd9fa6d3dcced58U, 0xbca3efdb3d02c7f1U, 0xbdaef826bd39ba6fU,
  0xbe1a4051be0f1597U, 0xbe20f6aabe649a7bU, 0xbe2c086dbe0c3c49U, 0xbe081d80be26a52bU,
  0xbd341675bdd42bc9U, 0xbca5dd8dbd42e375U, 0x3cdf9695bb173f2aU, 0x3d898e3c3dccb37bU,
  0x3d3ac6c7bdc9928fU, 0xbd866986bd1b5ce2U, 0xbd9ed5403d79b905U, 0xbbc3389f3dd6acb7U,
  0xbce65b34bd0ad380U, 0xbc2fd60ebbc0ae0aU, 0xbd3a9d913d141a78U, 0xbcd153303dca05bbU,
  0x3c0aab733cf09861U, 0xbd10c3a8bd626780U, 0xbcffe677bd75e89bU, 0xba8e4355bd9664efU,
  0x3b25accfbd0133e5U, 0x3d3995463b0432d6U, 0xbb60946f3bb5bcdcU, 0xbc6a811f3cd3240aU,
  0x3d3e11a5bd5db197U, 0x3db9f627bda9bf78U, 0xbc2a4c2ebd71ddc2U, 0xbd6a8efabd15f11bU,
  0xbd8160d4ba41e382U, 0xbd73a8bcbbff9161U, 0xbd170b6b3d155121U, 0x3deb47ee3c4a8aa8U,
  0x3da83b48bca27bf6U, 0xbd92fb40bdaa8a67U, 0xbdf237f13dc670d4U, 0xbdf6a4823daf7ae7U,
  0x3d9a93adbd0fb5ccU, 0x3b95f021bd1fecabU, 0xbce7add5bd18dfabU, 0xbd562058bc8a43faU,
  0xbccd1462bcc920adU, 0xbc47ec193d8fa097U, 0x3bafddeabd47cf70U, 0x3df31e843d876bd1U,
  0x3d9a7f1cbcae0a59U, 0xbb23780fbd91def5U, 0xbb83d6e1bcc93136U, 0xbba6e7063d4be64fU,
  0x3d3f9637bc95d44fU, 0xba69c6e2bd854d4dU, 0x3d7c35c7bda3e00eU, 0x3dd0b915bce42198U,
  0x3c9bb42cbd6ef061U, 0xbd4a623f3e1f1dacU, 0xbd8df93f3d23c217U, 0x3d8e08bf3d594c4cU,
  0x3cd94ffabd3df831U, 0x3bc8e731bda88e4bU, 0xbcff24f13cb0826dU, 0xbd9a34f13d8908d0U,
  0x3c2eba413e123098U, 0x3d6e76ea3df4d7cdU, 0x3ca16e75bbefbee9U, 0x3d172d79bbe2496aU,
  0x3d903da83d6c0f2eU, 0x3d4d2c293d9352a4U, 0xbc9fcc673d256d94U, 0x3d6881fd3b3e0f70U,
  0x3d8e57273d101e48U, 0x3d8af0913d75abeeU, 0x3d2125703d9d0878U, 0x3d4cace43d49e908U,
  0x3b9ebf503daaf4d9U, 0x3daa43e33e0291cbU, 0x3e0d82b53c07ae82U, 0x3de6dab0bdcda693U,
  0x3dc9b6b2bd70d188U, 0xbbbcceee3d526af7U, 0x3cdb3b183c02435bU, 0x3daa069a3dc6e4e4U,
  0x3daac62ebd36eccaU, 0x3dc3010a3c1b9484U, 0x3dc646143df3286eU, 0x3cede1c03d85ab5dU,
  0xbdf375b13cea8628U, 0xbc52a7d63da04578U, 0x3db02a293e079900U, 0x3d3918553ca3605dU,
  0xbd35db8f3dac001dU, 0x3a760fa33db51d4eU, 0x3dbe5ea63d2f055aU, 0x3d9285243d0eee7aU,
  0x3d2f98483de28a0cU, 0xbd43b562bdc83742U, 0xbc58ba4bbd6cbceeU, 0x3caed7c4bdfe31e8U,
  0x3d35d32bbd5d4e3eU, 0xbd5df39fbd0efe8cU, 0xbdd1176dbc91fe09U, 0xbd6d7a71bd4729a2U,
  0xbca7dbefbe4490b8U, 0x3c3734debe299e9bU, 0xbd9168f4be4617eaU, 0xbd5cc1efbdde65fbU,
  0x3cb83078bd3b2ba3U, 0xbd71cf01bd0c0af0U, 0xbdf434e1bccad97fU, 0xbe00317d3c0dbb6dU,
  0xbdd174debd1195cbU, 0xbdca6f77bd19a4d7U, 0xbe2083753d835fd7U, 0xbe372eb23d318abbU,
  0xbe7abc003d641728U, 0xbe83b0803b54b018U, 0xbdaf68f13ce73fb6U, 0x3d496ae8bce6a686U,
  0xbc9f03b3bd8cd661U, 0xbd6b368bbdada411U, 0xbcd949b4bdddc8b9U, 0x3cd88d90be1e5768U,
  0x3d021708be55fc0fU, 0xbd53424cbde265feU, 0xbd33dad5bd1b2b54U, 0xbc419f5ebdd4f58eU,
  0xbc0bb492bd19d42eU, 0xbd8ad4703b857e8bU, 0xb9d95b063d0e0f39U, 0xba882615be30dd6aU,
  0x3cb3944abd4ace53U, 0x3d58a07fbb00301eU, 0xbcfb3adfbda6228fU, 0xbba33fa5bdc88f3cU,
  0xbda1ac81bd2ecffeU, 0x3b9435ce3d037946U, 0xbd2d3db53da6146dU, 0xbddfcc4e3c3f993fU,
  0xbd59b8c13b524ebaU, 0xbc2aa8183de9a272U, 0xbbb03fd43d66c025U, 0xbcfcf34fbe0439edU,
  0xbce841e7bd342fa7U, 0x3cace396ba821468U, 0x3da2c7973d42e9e5U, 0xbc0518fe3c25b6a2U,
  0xbe04023a3d6a757bU, 0xbd30bb4d3d14da4dU, 0xbda2aa833d94ddd0U, 0xbdc2a3a83e052a05U,
  0xbd3a96d73def15c7U, 0x3ccfdd233da957a6U, 0x3c84ba513ded8413U, 0x3d7d49b83d8da36dU,
  0xbc8b91f13d0ae0cdU, 0x3ddf8928bbeb3addU, 0x3e2e05d33e234644U, 0x3df6fe59bcd8a1deU,
  0x3d53b6eebd972df4U, 0x3deb836ebc4c9492U, 0x3de1d1683c4af4a7U, 0x3cc67f0a3d86ebf5U,
  0x3d3ad4513d82c99eU, 0x3cf8e82bbcee157cU, 0x3d56aaa63dfc919aU, 0x3e13ac5c3dec3fa6U,
  0x3c8e2c4d3e00dbf8U, 0x3ccbe22abc843513U, 0x3d4673193da8ce3cU, 0x3d9b7b423e13d0fcU,
  0x3d9571f83e1b3e5eU, 0xbc1b08f1bd080484U, 0x3d9cc49e3da5189aU, 0x3de2d1be3de7f216U,
  0x3d89a25e3dbf18c4U, 0x3ca5febf3c91101aU, 0xbc0b2f3c3c3f35e8U, 0x3e30d824bc341b83U,
  0x3c5eceb83d90019dU, 0x3db79254bc508cf1U, 0x3c72d7fdbbe8b780U, 0x3d748c613acd4d4aU,
  0x3d6cf7163c72b888U, 0x3ca5d3fb3ab0e8c4U, 0xbda96266bd0e83beU, 0xbdfca658bd661f1bU,
  0xbe031ec7be0307c7U, 0xbe22fedebe091e38U, 0xbdccc7eabe316b33U, 0xbd0536d0bd0b7b80U,
  0x3da580613c167217U, 0x3daef7353dacfacdU, 0x3e1390983ddae15dU, 0x3de355e33e01a907U,
  0x3d9c1faf3e00aaf7U, 0xbd3e34853d18ce5cU, 0xbdcbc332bd591df0U, 0xbe6d1d89be4fd502U,
  0xbe90fb4bbe8fb7f1U, 0xbe84898cbe6c6503U, 0xbdc08962be1a899aU, 0x3d3bdaa5bcb74036U,
  0x3dac0ea03d969f03U, 0x3e2b139c3dd9e367U, 0x3d7c75b63dcd9c8aU, 0x3d7061ef3e0abf7fU,
  0x3d5a566d3c9d99e2U, 0xbdd6a54f3bba6222U, 0xbe12d59dbde5bb64U, 0xbe11e78cbe23dd58U,
  0xbdeb4cf5be3528f7U, 0xbdc2667ebd9a00a8U, 0x3cbd000dbd6af205U, 0x3d9a06493d188b4fU,
  0x3d6028233d9719a8U, 0x3d4a120a3dabfb1bU, 0x3b99381b3cf8a6a9U, 0xbdc583b9ba89d6e0U,
  0xbe3d849cbe28af6cU, 0xbe628480be309532U, 0xbe2e2fe8be197385U, 0xbd4099bbbe497559U,
  0x3d0df3e9bcb52c50U, 0x3dad117a3d1171a6U, 0x3dcf36503d4bd62dU, 0x3df33abc3de9279bU,
  0x3d67bc4f3d9594a2U, 0x3d2be8d93cb14331U, 0xbdcf6ca9bd761c0cU, 0xbddc7e8ebdd77c77U,
  0xbe128891be5f0508U, 0xbe186f37be627c3aU, 0xbdd14ca6be0e7397U, 0xbdb1fa6abdf8142bU,
  0xbc922601bd028b06U, 0xbce9d8873b2d8621U, 0x3ca40bebbbf44be1U, 0x3d8782843d7e1c85U,
  0x3da74cbd3d473effU, 0x3cb56c1f3d43ff3dU, 0x3d684f5b3cc91c27U, 0x3dce37ba3d64a803U,
  0xbb07aa42bce269aeU, 0x3c4c8b43bd69198aU, 0xbdc95890bd481b67U, 0xbdf54161bdabd0dbU,
  0xbda8b86cbe21ec54U, 0xbe040ac3be2ae90bU, 0xbe09cccebe2cf0faU, 0xbda43581be0c0881U,
  0x3d10f04ebd43e239U, 0x3cf76a7a3c2aa57dU, 0x3daec2663ca11a9bU, 0x3dd1b7163df14aacU,
  0x3e157d7a3dfbd227U, 0x3d9230de3df691b7U, 0x3d3ed9b33df03dc5U, 0xbcc8ec6b3cbda21cU,
  0xbd918444bc658297U, 0xbe2ffbaabd80a714U, 0xbe0134bebdba44d1U, 0xbdf863a4bde2af48U,
  0xbdb8a8b6be19330eU, 0xbd7930cbbd8487b1U, 0xbc2de05dbd0aecb4U, 0x3dede26cbd631064U,
  0xbd08fbaebe2777fbU, 0x3cef90dfbc1f253bU, 0x3c22eed0bb32f623U, 0x3d048cca3dd9be0bU,
  0x3da02330bcb5a850U, 0xbdad9e7abc1207e2U, 0xbd2e643d3db38799U, 0xbe822475bd9a7f32U,
  0xbdb512853dfad009U, 0xbd8dce7b3dbc4058U, 0xbdab438a3dc3f49eU, 0xbd7a44f53c48be45U,
  0xbcd7f406bd22329dU, 0x3d299d58bd204cd6U, 0x3cd4222c3bd977b2U, 0x3ddb41e7bda6afd2U,
  0x3d684ae4be261273U, 0xbd77aa3bbdc3fc60U, 0xbd36422bbd9b089cU, 0x3cbe8b593c8a5795U,
  0xbce959053cfac6f7U, 0xbddaccad3d0083beU, 0xbd88f4d63d8d0a02U, 0x3dc4f82e3ccbb4b0U,
  0xbcb0a8e7bcab2458U, 0x3c2cb326bd6f0a31U, 0x3d9ee04dbcded53fU, 0x3d9351d3be027178U,
  0xbd683941bdf2c1d8U, 0x3dd7ee74bdd31d6bU, 0x3df85888bcf466acU, 0x3d1c486bbb0e99ccU,
  0xbc155e39bdf8ec5fU, 0xbc8ba84ebd6de845U, 0xbdacf0673d60b3f1U, 0xbdc56dd03c78c167U,
  0x3ce056abbd3d4802U, 0x3d8daf2dbd4cc6feU, 0xbd497d4bbcae7b28U, 0x3cf4aa643d02e2b2U,
  0x3d63f17fbcee5e11U, 0x3bdd9d90bc923430U, 0xbdc573213e0c87edU, 0xbe12ff193e005131U,
  0xbe1b2d243dfebeb6U, 0xbe2bfc703df494a0U, 0xbdfdbc1f3dec540fU, 0xbd8bfc753e121d9bU,
  0x3cc7e0403ba0fbb3U, 0x3cbdd1c2bd8d2e95U, 0x3d8a5feebc139463U, 0x3df52af73d0b1f08U,
  0x3dce970abd0cf584U, 0x3df0eebabdc0350fU, 0x3ce2d0a6be09e14aU, 0x3dd982f9bdbd9bd5U,
  0x3ca85b96bdb039ddU, 0x3bf45500bcf7a79dU, 0xbd8b7beb3c84747aU, 0x3d3de02dbd21bab6U,
  0x3d3a73b43ae6f5dcU, 0x3cfd57653d39a148U, 0xbc407c98bd795be2U, 0xbd041aab3dad5b74U,
  0xbbec735bbc24613eU, 0x3d9d9d3e3b918abeU, 0xbd6ebc823c305cdaU, 0xbd196b25bbb0918cU,
  0xbcb51bc53c16641bU, 0xbd2946d9bc0092b5U, 0xbb280fc63e06b7e6U, 0x3de39522bcc05650U,
  0x3dc2e3d2bdab2ddfU, 0xbb3180e8be7b4bedU, 0x3d1adaddbda5c7a7U, 0xbd2df8c53d635d4fU,
  0xbccd67493d84bcceU, 0xbd11101d3cc7059dU, 0xbd2e9adebc097551U, 0xbdd23ada3e191149U,
  0xbd97c97c3df735e9U, 0xbaf908bbbd1eda3aU, 0x3ddb383f3c0ec0beU, 0xbb1adbb5bd958bcdU,
  0xbc963a0e3bb5e49aU, 0xbcf6d513bb848debU, 0x3cac5a8c3ca1ecc6U, 0x3c9b1ea73bb7bd8eU,
  0xbc86137239ea688cU, 0xbb6961313cd7aad4U, 0xbd484c11bb897bc6U, 0xbd82d756bd0a22a9U,
  0xbcdabccabd595aa8U, 0xbd730aecbcc0b94bU, 0xbdbe7ad5bdb9ec03U, 0xbd898f7bbd4308d2U,
  0x3b5c0e973ccc991bU, 0xbbc510673cba3c4eU, 0x3ced03743baefb07U, 0x3d81a50a3da16693U,
  0xbcbdd436bc1121b0U, 0x3c1017ddbbff2944U, 0xbc59fe413b9c70bdU, 0xbd043815bd610f56U,
  0xbbcb070dbc13d8b5U, 0x3aae8ecd3c3c55a7U, 0x3cef0575bc8525ccU, 0x3d06cc253d2dabb5U,
  0x3d2ce67c3d54267eU, 0xba9cf0d9bcbaac49U, 0xbd87dd7ebd540d3aU, 0xbd453ffdbd73bbc2U,
  0xbdbbe6b8bdb4666cU, 0xbdda0d80be0e8c10U, 0xbdf5ba03be3a0423U, 0xbd7250debdc7c82bU,
  0xbc1a13cbbd208d35U, 0x3d4b0ad63caf19e5U, 0x3e093a733d995227U, 0x3dedbe7e3db1c4b4U,
  0x3dd9320b3dc550e5U, 0x3d8068e93b9564b4U, 0xbcb9f4cf3c13ea39U, 0xbd11bac8bd3babc9U,
  0xbdf28b99bd7f23e5U, 0xbdf24968be0999a7U, 0xbddf962cbe297aafU, 0xbdcc9306be0f992cU,
  0xbd8e5389bd90885dU, 0xbd354566bd97c5faU, 0xbc0bc42bbd25c4b5U, 0xbcc53e0abd0e21bfU,
  0xbcb83587bd5987d2U, 0x3c9740443c6db55cU, 0x3d83eeef3cde3b97U, 0x3d87ce063d916783U,
  0x3dd4a9943dc25dd7U, 0x3dd64f893dd5ce25U, 0x3d8475043dd25bc8U, 0x3cf2825b3ccf4b38U,
  0xbdb08688bcd873e6U, 0xbe27474ebe2b01acU, 0xbe7c6b5bbe8bbed6U, 0xbe9b998dbe9b478bU,
  0xbe7ef571be90b81dU, 0xbde08582be1ea9feU, 0xbcbc435cbdc8d304U, 0x3dc42f563d8b7d56U,
  0x3e1bfc023e10f2e4U, 0x3e4336323e3f5b2fU, 0x3e30547d3e3532cfU, 0x3d87158d3e0fa8a5U,
  0xbd467eb43c76f3fdU, 0xbe297156bdfff522U, 0xbe8ba143be77e4deU, 0xbe870ce7be92b3adU,
  0xbe9f1589be8fce1fU, 0xbe1568c2be52efe6U, 0x3be6a296bde77821U, 0x3d726fafbbe47dfdU,
  0x3d8b27143d62a96cU, 0x3d8b97a93d94f1e8U, 0x3d2ae8c03da35dddU, 0x3b7ed05a3d548c77U,
  0xbdac606cbd484498U, 0xbd86cfc0bd6cfb53U, 0xbdb47bc5bdb5565fU, 0xbdb06208bca78a55U,
  0xbd62911cbd9484d7U, 0x3d925982bcf01deeU, 0x3c7772adbb17e551U, 0x3da6b015bc36f58bU,
  0x3d72b6263c38bf72U, 0x3d3329c9bc636d91U, 0xbcc92706bd0e5224U, 0x3ba73f5fbcea744cU,
  0xbdb17cb6bda5cb91U, 0xbcefaeb4bda4475bU, 0x3c682892bd5661deU, 0x3ca31bcc3b38b959U,
  0x3d47226d3d079616U, 0x3cb0f4cd3c955a1cU, 0xbce23d6e3d2668b0U, 0xbe07110fb9593abeU,
  0xbdbdf8a3bd86c3f0U, 0xbddd6825be27cef6U, 0xbdd735e6be3cbdafU, 0xbe3a3fcdbe36c0e8U,
  0xbd23c4cfbd8ff418U, 0x3d295b943c5d1c53U, 0x3d9667ca3c302261U, 0x3dbe24393e1c4d06U,
  0x3dd532c83ddcca3dU, 0x3d949ef33e1c87e8U, 0x3d213a903dee4c2eU, 0xbc967c223c534bbeU,
  0xbe033477bd9fa23cU, 0xbda96eb5be139092U, 0xbe73b17bbdc2e5bfU, 0xbe65f556bdaae1afU,
  0xbe0a0bdcbe0ce15bU, 0xbdcfba7ebe101c90U, 0xbd19aea4bda22b18U, 0x3d067db63c6f2df8U,
  0x3dda0e2f3dd7cb00U, 0x3c1610cd3d97226bU, 0x3d7c76303d919a48U, 0xbb59c06b3db66b9aU,
  0xbd088a1fbbec8043U, 0xbdac48c33cd56dbbU, 0xbce3dff1bcf95d3eU, 0xbde2b97bbdfe7180U,
  0xbd689ff2bd66f3e1U, 0xbcc2502f3c92f57aU, 0x3de2bf943d9d43b2U, 0x3ce787073d6abb10U,
  0xbd15201d3cf28cbcU, 0xbd7f5ba43d042b06U, 0xbe1e1131be062cd3U, 0xbe8fd353be721751U,
  0xbe2c4efdbe8a003fU, 0xbe0b0276be44c021U, 0x3c740454bd4cf4a4U, 0x3e14a01b3dc88d6eU,
  0x3e2213053e1c8ab3U, 0x3e130cde3e31ef4eU, 0x3e128d233e1ce065U, 0x3d40790f3e29c6baU,
  0xbccc71cabd4652b9U, 0xbe822aa9be3c753aU, 0xbe960ca7be9a3c4fU, 0xbe66a439beb9e938U,
  0xbdcad15dbe72a56aU, 0xbd27d67dbe1414e2U, 0xbd062326bd9ccda2U, 0x3d719dfe3d2c5475U,
  0x3dcbdf203da40d8cU, 0x3d1dc3ca3d149215U, 0x3d1b48e43ce3b7a1U, 0x3b31b2743ccc0e3eU,
  0xbd56350fbd5c5524U, 0xbd5be537bd9e8fffU, 0xbd03c490bceb7565U, 0xbda789babcb41069U,
  0x3ce3b66fbd5fac5cU, 0xbd11416ebd5a64bdU, 0xbcbf0c3fbd0c0402U, 0xbd1f842fbc71e4a8U,
  0xbd2cc27ebcffef30U, 0xbc1d6724bd800294U, 0x3bd69a6dbcf034e7U, 0x3d1e6bd93be41754U,
  0x3d663b683cfa0b5cU, 0x3b786c383d1cc098U, 0xbdbbc03fbc0eeb84U, 0xbdf2d6cfbd5288f1U,
  0xbe297bfabe0d29edU, 0xbe095a2bbe222702U, 0xbdafaaedbdcf3f3dU, 0xbd17cdc5bd259c01U,
  0x3b7a38003c3dc42cU, 0x3dfad6bc3d90d4fdU, 0x3e10bf083da77aefU, 0x3e184c3b3e307d6dU,
  0x3e1043203da0b821U, 0x3bd7031f3d49f3a0U, 0xbdc3c8b33c64c0eeU, 0xbe653a6bbdc472a6U,
  0xbe7bbe18be4ea359U, 0xbe8b646bbe8b3970U, 0xbe3803adbe9273f9U, 0xbe195710be74472eU,
  0xbd39bb0dbdd7c09dU, 0x3d6919ca3d6c95aaU, 0x3db2af4d3dd6aa57U, 0x3e09b5d63e05af9aU,
  0x3dba89853dd07972U, 0xbcc167a73d548680U, 0xbd3dc234bd1c8bf7U, 0xbdd32765bd95cc20U,
  0xbe103534bd7afceaU, 0xbdda567abe166120U, 0xbdbc1284bdbfa5c4U, 0xbb95773bbdfa4f2fU,
  0x3c9feb91bd2a30b3U, 0xbc7ccc2bbccd25cdU, 0x3d486c6b3daddebeU, 0x3c291ac23c793abdU,
  0x3c0b40313d400d5eU, 0xbdbd05f3bda362ddU, 0xbe08e203be174ebbU, 0xbe0fe64fbe18e5f1U,
  0xbd9e66e3bdf13452U, 0xbd06f6a2bc9360aeU, 0xbb3e4b463be55523U, 0x3da375183da4177bU,
  0x3d536c893d52ff6aU, 0x3d9ae5c13da8d373U, 0x3de29cb93de1b7fcU, 0x3b10042e3d8f7fddU,
  0x3c58212dbc7d42f9U, 0xbd3623bfbd2a7c57U, 0xbdf88fd7bda04db2U, 0xbe281135be14f215U,
  0xbdece573be64cd97U, 0xbe784557be86cb36U, 0xbe38c34dbe04bf73U, 0xbdd0ffe9be35c39dU,
  0xbdae5e74bdbe7d12U, 0x3c0cbcc7bcabf36bU, 0x3dc11a8e3d4ffc99U, 0x3dbf393c3df3c07fU,
  0x3de195003df08e0cU, 0x3ddaeb6a3e1e850bU, 0x3db2d7393da4682aU, 0xbcf280083d2fec0dU,
  0xbd329d793bf2232eU, 0xbdae23acbd492e22U, 0xbe64e670bde0e6aeU, 0xbe1afd26be07dedaU,
  0xbe48b8e0be3364c4U, 0xbd431828bde9966fU, 0xbcd28eb5be0fd55cU, 0xbce4db6cbdb9f477U,
  0xbd735228bd27b60fU, 0xbd6828e4bd4ffc43U, 0xbd9d5acdbc9cb90bU, 0xbd15235ebc297196U,
  0x3caf9dcbbd06b677U, 0x3d2693de3d00b001U, 0x3dc0db033da092c9U, 0x3daf4be43d780465U,
  0x3db8ba933d8b7262U, 0x3d154ee53dc82183U, 0x3d5125e73d61e408U, 0xbd25919f3c032f51U,
  0xbdd22b02bb9ab60cU, 0xbdbb1e4cbdbc2ef3U, 0xbe00ca4cbdeea1e0U, 0xbdda83f7bd899b49U,
  0xbe0d7091be4ff871U, 0xbe1dc568be695c22U, 0xbdefaafabe095492U, 0xbd47ab70bd8cdd1eU,
  0x3d4e4d783d65df97U, 0x3dd2b4753dd86417U, 0x3e3bd5df3da87b6aU, 0x3dce04053e1f11a2U,
  0x3a6991fc3d959d5eU, 0x3c6370663cfbcae9U, 0xbd3eddd6bd5bcb3dU, 0xbe01b066be070ac3U,
  0xbe3db6f9be57dfccU, 0xbdae3dafbe2d1e89U, 0xbdc1cdb7bdad47d2U, 0x3d35d031bd79dc2bU,
  0x3de2f50b3d9764c2U, 0x3df7de923dabf0deU, 0x3c8b1bc03c99990fU, 0xbd819a58bd31312bU,
  0xbd7024fdbdd240b6U, 0xbe11514cbe063b04U, 0xbdaef369bdf52f75U, 0x3ae31f3abdabc34eU,
  0x3d0bc68f3a978fc8U, 0x3dfbeed43d35e2e3U, 0x3df1b15b3df5ee6fU, 0x3d6924323e0e2323U,
  0x3d1b94ec3db78a75U, 0xbd9a6208bd286864U, 0xbe4518e8be023cbaU, 0xbe3f4bf0be3b5b51U,
  0xbe7fea8cbe374214U, 0xbe51b9d0be8c1d65U, 0xbe15f795be4f3549U, 0x3cb5401dbd87681dU,
  0x3dbad1b23be1d054U, 0x3e0766213dfd5804U, 0x3dc99bfe3e13a3a7U, 0x3ddd3f033e08179cU,
  0x3cf78d3a3d53eaaaU, 0xbb6549bc3d1d4af9U, 0xbdd7c668bda6906dU, 0xbdda84fcbde5d3a0U,
  0xbe269139be35fc72U, 0xbe4e01efbe0811e3U, 0xbe1c8eb4bddd1ddbU, 0xbdd857ecbe1317b5U,
  0xbd027738bd8af604U, 0xbb00ce38bd24f3b9U, 0xbc3471a93cc800a9U, 0x3b997465bd810530U,
  0xbb23fb44bd09cbb1U, 0xbadd8670bcec8cb3U, 0x3cae9af23b4f1aefU, 0x3d80911d3d385622U,
  0x3d27d32d3d66e699U, 0x3de668003deca6e3U, 0x3db414b53d978812U, 0x3d8d3cee3d76e405U,
  0xbd049761bb90e4d3U, 0xbda3dff0bd860235U, 0xbdce98febe0070e5U, 0xbe28d7e5be2a09deU,
  0xbe558ea5be1853fdU, 0xbe4f4cfebe2d5cadU, 0xbdedeeecbe0d2f20U, 0xbd06bd37bd81d96dU,
  0x3da6b9163da1afa8U, 0x3e26298b3dd9c56aU, 0x3e1c1a523e061a79U, 0x3e1b7cb23e0c83fcU,
  0xbb3b5b633dafcc39U, 0x3d25cc9b3d11d534U, 0xbd210c5b3b16eb82U, 0xbd8677bfbe0c2a7cU,
  0xbe23f1eebe12e28eU, 0xbe0f729abe22e19dU, 0xbd2e9034bd93f54aU, 0xbdfce64fbd9606beU,
  0xbce9d458bd9fc3e1U, 0x3d76a2cfbc8bdde7U, 0x3c42c8b73b9c6164U, 0xbb6cf3113c6256bcU,
  0x3d8c2232bcdf5b9aU, 0x3cb2edb4bd291602U, 0x3cf38e99bcb5eb95U, 0x3e116cd5bd20c9beU,
  0x3d15d3dbbd50aa76U, 0x3db05fc6bdeebe90U, 0x3a8a4314bd2bddc4U, 0xbd6120a43ca3038aU,
  0xbde474f83c1b3461U, 0x3d19d929bc2855abU, 0x39c24b4cbcfc6d13U, 0xbd9f869d3d1637e4U,
  0xbdb830f13d8f1c53U, 0xbd2bb6a23cba5fc9U, 0xbc238905bcef4e64U, 0xbcfd9d783c81b3f5U,
  0xbd48de5bbccc7ff2U, 0xbd41f06ebd394e2aU, 0xbd2862e0bc516c3eU, 0x3c359fa33d85153eU,
  0xbc8ed645bd5ef42fU, 0x3d28d76ebd3f8c09U, 0xbd0bc0bb3c3cd726U, 0xbcb227b6bc7ca040U,
  0x3d333b57bcf3c17fU, 0x3c904aa5bc9ad605U, 0x3a5e7876bdb437cfU, 0xbc924afbbcaf73f1U,
  0x3ba02159bba0485aU, 0x3db64a5dbb9490dcU, 0x3db4aa7fbdfaf52bU, 0xbd42823bbd1e9e0bU,
  0xbca02a633bd8f31eU, 0xbd47e60b3d53d8e9U, 0x3d65e12dbd454cf9U, 0x3d973e6fbd8ad8fcU,
  0xbd020d5b3ccfb00eU, 0x3d67a4753b8a7c5cU, 0x3cc2c2c83bccbb78U, 0x3dc4703fbe01f80bU,
  0x3ddc5f473d255701U, 0xbdc5854abccde5aaU, 0xbc2a94ba3d399c9fU, 0xbd7a4d833d9d8c24U,
  0xbd9709b73dd6261fU, 0x3d9a5e7bba166c60U, 0x3c981ae73d77af76U, 0xbdd1cd8c3d2dfaa5U,
  0xbd89b16c3dd8950bU, 0x3ce6178c3d5c692fU, 0x3d33e5e33bd7f50dU, 0x3d80f958bc1ae539U,
  0xbd84c1193dbcd10dU, 0xbdeaabbc3dd3b952U, 0x3d47180a3e0b876aU, 0x3d9115dbbdc5eff5U,
  0x3d741bed3d6150a1U, 0xbcc94e7c3d584f34U, 0x3d30fe623cf66282U, 0x3d7b728bbd87834cU,
  0x3e58d0efbd91dc4bU, 0x3e4c5fbf3ba35213U, 0x3d81f7a3bc62a231U, 0x3cae649cbd44839bU,
  0xbd2b3c993c069bb3U, 0xbcbf00023c53540fU, 0x3d20b8a13ce7bbc8U, 0x3cf8b4603d66fca1U,
  0xbe1de69d3da099d8U, 0xbc7e89ec3c356121U, 0xba80a1bbbc99fb14U, 0x3d8cfa9c3d4e7cbfU,
  0x3d284155bbc69446U, 0xbb964f093d13f0cdU, 0xbd00eb5cbc4e26c2U, 0x3daf1c89bd8c10b6U,
  0x3d93e9c63c1a02c5U, 0x3dc396c63daf8f20U, 0xbd8ce3483da7c0dbU, 0xbd4a81b93d099699U,
  0xbd0cc3953d67b0c2U, 0x3ce187553d767b89U, 0x3de0a36abc1de631U, 0x3e058ded3cf39f8fU,
  0x3d753a8ebd9b57acU, 0x3d1c3d263cf4141aU, 0x3e181f43bd433d5aU, 0x3cbb7a74bd200e76U,
  0xbbd1a064bd470812U, 0x3d0a9960bc680337U, 0x3d5e8659bcbcf7faU, 0x3d2dbadabca29e0cU,
  0x3d44a8a1bab07de1U, 0x3d3b4c2d3cd27aa9U, 0x3cd197d2bd92e44eU, 0x3c2d90c13b5d5aafU,
  0xbd288c5e3da55ccfU, 0xbd54b0b23e101461U, 0x3ca987883da1c2e8U, 0x3d4d354c3d22a3d0U,
  0xbdaf6e50ba4ee890U, 0xbdcbaa74bb3112ceU, 0x3c4389aa3d6d9411U, 0xbc98ce183ca49780U,
  0x3ccb388f3dcfc6e3U, 0x3dabd03c3d89d768U, 0x3e08dac2bbe9c7a0U, 0xbbcf380bbc661651U,
  0x3dfe4edb3cb10ad6U, 0x3da79d22bb70bd74U, 0xbd1581f2bd8bcaf9U, 0x3d32feccbbb8badeU,
  0x3dca4e0bbb0b9676U, 0x3ce4478abd022715U, 0x3c9fad0c3db2bfbaU, 0x3d1a14453c82d4aeU,
  0x3dd0aba4bd09c27bU, 0x3d1b9a38bd437454U, 0x3e13dd3ebd52c0fcU, 0x3d92faf1bc80ab59U,
  0x3daabe703c1e2dadU, 0x3d81348b3dae565bU, 0xbc5f3bbe3ce69bc2U, 0x3cd864993d30b04dU,
  0x3d75f189bd8e1886U, 0x3e07e94d3c520ea7U, 0x3b7258433d1b35a8U, 0xbd0435f23c56168aU,
  0xbdc4f05f3c9890f9U, 0xbd8a9dba3dd83244U, 0xbc6d8f213dfb1462U, 0x3d342ff03dcb32b9U,
  0x3d344d0fbd060b34U, 0xbd392b083dbf4509U, 0x3d633bdb3dd21076U, 0x3d6d7e9c3d718f18U,
  0x3d695dda3c0c3b55U, 0x3b94d6513da00b3bU, 0x3d075291bd43b1f3U, 0xbd001702bccc39b8U,
  0xbb0f45293c03bb42U, 0x3dda0fd8bc388adbU, 0x3d2c1a46bc46d1feU, 0x3d4b91a7bd4bfcfeU,
  0x3dd34dbfbda5cb24U, 0x3aa4e6c8bdc6a878U, 0xbd113068bd1117b5U, 0x3d2343013d01654aU,
  0xbd7428c23c5c4d5dU, 0xbc8901bf3c1e9a15U, 0x3df391d0bdc413c3U, 0x3da2aeabbcde25cbU,
  0xbd27933a3d548d8aU, 0x3c18427e3d4d0a46U, 0xbd1c458d3dd085a0U, 0xbc06aae83d508eafU,
  0x3cf46c34bcd383a2U, 0xbda007593b95abaaU, 0xbdf1caff3d6c126bU, 0xbbd8964d3b9d621eU,
  0xbac66c58bcef5239U, 0xbc712733bcc540d1U, 0x3c40fec53a10f982U, 0x3d6574f43c27f98cU,
  0x3d96e05cbd91d701U, 0x3a0ee31e3d61a57fU, 0xbd8c66b33d62ccfbU, 0x3d0b06dbbcc65adaU,
  0x3da7a8f6bd1d1632U, 0x3d360e48bc4c0899U, 0x3db884f63d650e8eU, 0x3dba40e93df7cdc2U,
  0x3dd7f5db3e30a2dbU, 0x3e17996e3df19b35U, 0x3d5def7d3dbf4f96U, 0xbcb5d68a3d150b6bU,
  0xbe81aef0bd14fe85U, 0xbe584c3dbdcb5326U, 0xbe61ee3cbe54c966U, 0xbe7cbad6be9cfdc8U,
  0xbe77e080be3ab50bU, 0xbdd7f744be1046b8U, 0xbbc322a6bd32507bU, 0x3d0abb6a3d6d441fU,
  0xbd3539bc3c408c1fU, 0x3d504a68bae106a0U, 0x3ce0cd23bd89ba98U, 0x3cec55783bac4829U,
  0x3cb270883da43931U, 0x3da49cba3d265ca2U, 0x3e087d8e3d643d2aU, 0x3c8c33f1bd87b3c0U,
  0xba4d7953bd014fa9U, 0xbdb705173cc4de56U, 0xbe09ddfbbd12fd0aU, 0xbdb848dbbe584e66U,
  0xbdcb7de2be40e225U, 0x3b6efa97bd903d91U, 0x3dd316323c84a76bU, 0x3de3f0a03c39350aU,
  0x3daaa9873c0728d7U, 0xba364986bbfd7b70U, 0xbcc1a5213d02532aU, 0xbe1a20e5be266b39U,
  0xbdc5da08be862d6dU, 0xbd987786be2f18deU, 0xbcc7722cbe176e1fU, 0xbc410459bd449afaU,
  0x3deb69bb3d1e7ae7U, 0x3de881893d474128U, 0x3dac8bb03d8d5852U, 0x3e090bde3da75c70U,
  0x3cdbeb993cba6db4U, 0xbca3130ebc9373b4U, 0xbd996976bda79fc0U, 0xbde4d172bda31affU,
  0xbb3a3c8cbe070f86U, 0xbba262bebdd66352U, 0x3c6239fabdc46e3bU, 0xbd44accb3ca408bdU,
  0x3ce6f668bd23c340U, 0xbd77c664bd825bc2U, 0xbd55b5a1bde6c90aU, 0xbde2007bbddf8c84U,
  0xbc8bd374bd35a550U, 0xbdaadd1dbd3b1ff6U, 0x3b6c68923bd4b860U, 0xbd3db5a13d4e3a26U,
  0x3dcb5d323de4c920U, 0x3dd10b103dd648ebU, 0x3dd6d5763da644a8U, 0x3c8940d63db04563U,
  0xbcee7b513d25c615U, 0xbe194dcabd50623cU, 0xbe4471dcbc880358U, 0xbe5ee096bdf1403dU,
  0xbe5eac8ebd70f5c0U, 0xbe161b3ebdc0f21dU, 0xbe56e1b0bdb69882U, 0xbd8e5a33bd5baf6aU,
  0x3cbcc2783d84002aU, 0x3de02a383e123154U, 0x3d6f54b13e11ff41U, 0x3d9b1c1d3df9c304U,
  0x3d422daf3d4bc476U, 0xbd5de3593bd286c8U, 0xbe07f6e7bdd7e61aU, 0xbe401afcbd1a35caU,
  0xbde21478bde14c80U, 0xbe1084a0be5408a8U, 0xbe0909c3bdc9fc18U, 0xbd319694bd58ffb8U,
  0x3cf282343d5ad803U, 0x3d7ee7b03dc2e93dU, 0x3ba9b82e3cebfda1U, 0x3d739d3b3d2fb50eU,
  0x3dc5d7ecbd8a8396U, 0x3bbce088bdffdda2U, 0xbe51504ebd37a646U, 0xbd5030a23df3b765U,
  0xba9a0b003daf2f48U, 0x3d8d615e3e0122e0U, 0xbc22433abb064e5aU, 0x3d8de87bbd9ddaf0U,
  0xbd810b88bc0e426cU, 0xbe3de79b3cb11eecU, 0xbd265f01bbd2c86aU, 0x3ddba2943d98a98cU,
  0x3b5d16763e0e01bcU, 0x3d8db5613ceabea1U, 0x3d32a822bc9a2623U, 0x3c854b70bddd75d1U,
  0xbd513fc2bda3802cU, 0xbcb1b4ddbc37ed42U, 0xbe53465f3da8af55U, 0xbcf7f1283d98ec34U,
  0x3de5db473d395692U, 0x3bb17cbebd21b190U, 0x3d5f2c7ebcecb89fU, 0xbcf20232bdffdd78U,
  0xbe6bf0b6bd40f6dbU, 0xbe8955683d66274fU, 0xbcb7a7cb3d7299fbU, 0x3d4b6eafbddb13feU,
  0xbbd40ca6bcc7d49aU, 0x3e04eb80bde6f79aU, 0x3db563343d7441d2U, 0x3d1ad4e93cfc9e33U,
  0xbd57e41fbbf42645U, 0xbc220c3cbc9f7309U, 0xbd52510cbb1cae16U, 0xbdd134a03d69eb45U,
  0x3da8e8a03c8c53edU, 0x3d6c63f6bdbcdb04U, 0x3da7f5adbd12b6cfU, 0x3c8ead6a3dbb4fc8U,
  0xbe47a313bcfbcaafU, 0xbe2ef8743d6a5e41U, 0xbc5fe012bc7099a9U, 0x3d9a916dbe8215e9U,
  0x3d835565bddcfaf7U, 0xbb6a2eb73dd247caU, 0x3c762a513d78303aU, 0xbe692ab73db44432U,
  0x3d28ad733d979c49U, 0x3b94fd52bd3482fdU, 0xbdab5e64bdfa6ecaU, 0xbc61fbe33cec8b18U,
  0x3d7a4202bd295099U, 0x3ce99395bcd8126dU, 0x3d2107abbd0e68b8U, 0x3ced16443dd02728U,
  0xbe86ccd13dd44055U, 0xbe143a733d8d54fbU, 0xbcba1ec93c513428U, 0x3d97b925be77537bU,
  0x3d0faf48be7800b7U, 0x3d99e45abcc6cc99U, 0x3da9dba43d608ee9U, 0xbd7abcf83d9d8941U,
  0xbdcc26b13e044555U, 0x3cc8eb7f3b465784U, 0xbe210f80be3c4a45U, 0xbd6509acbda9b3ebU,
  0x3d0e78413d622d8cU, 0x3cc8c45f3d89bddeU, 0x3d8853b03d0200e7U, 0xbc884a0d3c04cfb3U,
  0xbdbc36acbbe5f7f4U, 0xbe1e68623d10fdbaU, 0xbbfbe8a0bd24b891U, 0x3c8de390be783b4cU,
  0x3c837377bd356aa7U, 0xbd8cccd83e0dae8eU, 0xbdf81b44bace4430U, 0xbc13d88d3df89547U,
  0x3dbb1e963e09eee8U, 0x3cb7fc65be1e4df1U, 0xbc5008b6be7d06beU, 0xbdbf71b23d1f050aU,
  0xbe8791a83d44c6e4U, 0xbce125933d6365d8U, 0x3d7e2ff6be065f6cU, 0x3e2e5e563c20b64eU,
  0xbc38b36e3d052b95U, 0xbcb482923d2e3df2U, 0xbc29fa073d2bcac1U, 0xbd4a6fac3d3036d5U,
  0xbdd8835dbda9c25aU, 0xbcd2400abdaceb48U, 0x3e1436e83bbe9d05U, 0x3d1caad9bcb92ef4U,
  0x3dd06fb83bfe5958U, 0xbba96c8c3da47cc1U, 0x3d4f919a3caa08c5U, 0xbdce4bf3bd85a3daU,
  0xbdcbfe6ebc37897dU, 0x3e3b0d95bdf5c789U, 0x3de3b67fbe2ba3a3U, 0x3e00923c3c3c8cedU,
  0x3c6353553d822faaU, 0x3c9750ed3dd96a9eU, 0xbd7e3ff43e041960U, 0xbd09ebf6bd25cb33U,
  0x3d259601be00a5a4U, 0xbc6c71a6be32b467U, 0x3cbcd517bca8d96dU, 0xbd0578bcbc212d1cU,
  0x3d9ef04e3dd514acU, 0x3da325db3d3724d7U, 0xbd0fcb6ebc5d15cdU, 0xbddd3c6cbd20eeabU,
  0xbdb57b56bd2ec3ceU, 0xbb474ccbbd90c869U, 0xbd587791be1471c3U, 0x3d842530bc92cba7U,
  0x3dbce1fb3bcc1a19U, 0xbde6acb03dd8ba76U, 0xbd54b7683dc3459eU, 0xbb9f45003cdc8ed7U,
  0x3d4a4be5be6413c9U, 0xbda9d788bdcabe18U, 0xbe79e9f0bdc93a26U, 0x3c1bca34bd356107U,
  0x3d57a55d3cce42e7U, 0x3dacf73b3d93abbcU, 0x3da5d2b63e04b6e1U, 0xbc467ded3d09f604U,
  0xbd93092d3c03ff9bU, 0xbe0059aebc885769U, 0xbe0b04dcbdb0561eU, 0x3ca51a483915d19eU,
  0x3dbafe563d973b34U, 0x3d1e0da7bc941045U, 0x3db5fdd63cf337dbU, 0x3dd007293e06eb9fU,
  0x3d3a31b9bd02a8fdU, 0xbd0a45cfbdc30d27U, 0xbe91c1e7be05f141U, 0xbdb127b23b5aa299U,
  0xbd144c6e3df10452U, 0x3de0ad2b3db0bd33U, 0x3daae1bebd1d208eU, 0x3d5625b6bc3832ebU,
  0xbc30f8703dd6a0bbU, 0xbe3735ca3c17ed6cU, 0xbd94c501be0ae144U, 0x3d6627b8be25ae7aU,
  0x3d94912ebe19f01eU, 0x3dc1761b3d221aceU, 0x3d5a705f3d702c40U, 0x3c845dca3d9613ceU,
  0xbcaa9cd6bd97733dU, 0xbcf72c2a3d3a016cU, 0xbe45802abd81fee0U, 0x3cdc1a73bd835e9dU,
  0x3da15c09bdcd2e2aU, 0x3d6bc603bd7fcad3U, 0x3e05f1ad3d5cd440U, 0x3dab0cd73ccb1e3fU,
  0xbb37807dbb7df7c6U, 0xbe3d829a3e22c6d1U, 0x3cb4a659bda7db22U, 0x3d920b5bbe7cc3b1U,
  0x3cedaab6bdf97797U, 0x3d9d658f3d639f65U, 0x3caed45a3d800678U, 0xbd44b90abc0cf361U,
  0xbd4da424bd4d11d3U, 0xbd7b512abe04380dU, 0xbdd8d3afbe056239U, 0xbd6cd5e4bdb3962cU,
  0x3c426117bd36aaf5U, 0x3da6ca8b3d99ad0fU, 0x3e07e4653d352410U, 0x3d524b323dd76c05U,
  0x3d3042363d2504b3U, 0xbdc1cca33cd03811U, 0xbe1429d4bd9c92cfU, 0xbe31c3a7bdfdbc5eU,
  0xbe5546b3be2723b6U, 0xbe1392bcbe1aab9dU, 0xbcd8461cbd338baaU, 0x3bfdf129bc04e697U,
  0x3d8cc9773dda5bf5U, 0x3d7f00903dd28b9fU, 0xba5659293d661511U, 0xbcf9923b3d539290U,
  0xbce335eebcd95e12U, 0xbdd0b77abd9e03c9U, 0xbde1a4d2be1a4b16U, 0xbd98c776bd990541U,
  0xbd1d63e3bdad3a97U, 0x3cdf76013b040013U, 0x3d80e8613db6a9e7U, 0x3c59e2623d1f79f6U,
  0xbcce3e663d3f9d28U, 0xbd93e492bd31e2fcU, 0xbe308114bd5d7b9fU, 0xbe2b96cbbe13a4e8U,
  0xbe02f46dbe0cb16bU, 0xbd845264bda3deabU, 0x3d443aa7bcd53795U, 0x3dceaea93db41ee4U,
  0x3e14cb173df44a0cU, 0x3e2927c13e04d5e4U, 0x3dbf06763df4c210U, 0xbaa68f813d15ad33U,
  0xbdda14a4bda35563U, 0xbe74a679be72fb58U, 0xbe92a78cbe86e4daU, 0xbe4bf339be7d4f74U,
  0xbe2aeba1be4e63c8U, 0xbd4aa971bdba37c4U, 0x3d3cbc54bd414e46U, 0x3e2199e93dda6ee1U,
  0x3e5f77d73e1a1413U, 0x3e1845cd3e34abc6U, 0x3de6d7763e358d69U, 0x3da2964f3da92b3fU,
  0xbd7a1140bc99f40cU, 0xbe2d89ffbd5bd3c3U, 0xbe29b848be83245cU, 0xbe4d4321be81865bU,
  0xbe5a5c0cbe695a96U, 0xbe2aad9bbdef165cU, 0xbd4ac601bde1d90aU, 0x3d1c400b3d1813abU,
  0x3d844c773d070696U, 0x3cabdb793af6dc5cU, 0x38a335003d4efdcfU, 0x3cdd076e3d350de5U,
  0x390938cd3bd3d8adU, 0xbbd34082bd83bbe5U, 0xbcb46adfbc9a0065U, 0xbb9fd444bd02fe54U,
  0xbd069c9d3c7e4775U, 0xbd30deb1bce73d6cU, 0xbddcef33bdb0cbf1U, 0xbd837aefbd908c3eU,
  0xbdb97d2fbdab2203U, 0xbd94f458bdfd8877U, 0xbd69e17fbddc7f9dU, 0xbcb980ebbd56f475U,
  0xbcb40b243b5155bbU, 0x3db64a533d7f8d5bU, 0x3d4b604a3d608defU, 0x3d8cb44a3dd8fbfaU,
  0x3d7788d73d19ff05U, 0x3a8950d2bc3eb183U, 0xbd20c5903c5eb9beU, 0xbc8c7e89bd28c6b2U,
  0x3d76c269bd7e73e6U, 0xbd281f17bc6d2f54U, 0xbcc1975cbc17d659U, 0xbdaa63c63d0ebb50U,
  0xbcc1fd473d472fd6U, 0xbdf6dcc9bc9d2d2aU, 0xbdf48dca3d38d3d0U, 0xbca841443d0ca36dU,
  0xbe0963513d4896b8U, 0xbd0fba993db02057U, 0x3d19a16c3aa01caaU, 0xbc65edc3bd65ca1dU,
  0xbdb17b0a3d8ba43aU, 0xbd3098773cb2d875U, 0x3d21c143be08e55eU, 0x3cce94abbdd3861aU,
  0x3d5abf30bda805d2U, 0x3cc0e0a4bd90e971U, 0x3dc71a82bdb5a48aU, 0x3d725193bd1e91e7U,
  0x3d441e74bc79f2ffU, 0x3cc4c7b53d1233a2U, 0xbba9fc603dc3f81bU, 0x3d8b4b3dbd0d79a4U,
  0x3d7ba8c0bdf924efU, 0xbd8454fcbd794566U, 0x3d73b4893d0ba593U, 0x3de3df1dbd39f6cbU,
  0xbcf8a735bd452cc8U, 0xbd9b84ce39688f06U, 0xbdb3835dbd304038U, 0xbd0b25c53cc1be2eU,
  0xbdbf3e3b3df734c2U, 0xbd875cea3c223ed0U, 0x3c7bf40b3cdeb821U, 0xbd1cc3eb3cf8b986U,
  0xbd0c40133dd8ba0fU, 0xbdbfd1383d6350f5U, 0xbd580a7d3e1439a4U, 0xbdba668e3d405af7U,
  0xbd8e9e353d6ea9b4U, 0x3d092bbf3d2891dfU, 0x3da23446bc93c5cdU, 0x3df8f0d8bdb4554aU,
  0xbd7b2902bd9f15e1U, 0xbd32f83b3d0ea25dU, 0xbb747edfbd4c208aU, 0x3e03e147bd8e0ab9U,
  0x3dcca8563cb64671U, 0x3dd68f2fbdc915f8U, 0x3dd51ecdbe1ea267U, 0x3dc3d313bd8c7854U,
  0x3e3d8afdbd905c20U, 0x3d76e0d8be18a963U, 0x3c53e3d73dafa9f4U, 0xbd9bcca03df7d266U,
  0xbd0a0aa43b68cf69U, 0x3d05f337bc909d32U, 0xbd7637283dc7e69dU, 0x3e0890263d176b38U,
  0x3d942f39bd20adaaU, 0x3cab54b73ddd47c8U, 0x3cd53ef53d4f2389U, 0xbd47a4353d9e5a2aU,
  0xbd5136e33e0ecf09U, 0x3c803cf63e25b704U, 0xbc6b7e0fbda466a6U, 0xbd6939adbcb76469U,
  0x3cba849b3c95796bU, 0x3d7dc0bb3d308b5eU, 0x3d4d4bd43d32d47aU, 0x3d1faf663c8bf600U,
  0xbd0c86b93d4ddc79U, 0x3d30e18a3d99f79fU, 0x3dcb133c3dabe368U, 0x3db559d43cc9c1d1U,
  0x3d8ee01bbe1f4537U, 0x3daa9574bd3acabaU, 0x3d944ebfbc81fcbbU, 0x3d9edeebbccc3b41U,
  0x3d97b0bcbd39d71fU, 0xbc01f71c3da30550U, 0x3da127e63d8bbde5U, 0xbccddd413c1aefddU,
  0x3baf758c3bf2d1cbU, 0x3d81db223d34170fU, 0x3d76e21a3d9bde7eU, 0xbc0ae4c83d88b7b8U,
  0xbbfc2a0c3db402e6U, 0x3cc3e8f83d99f22fU, 0x3c941986bd0b0f12U, 0xbb206068bc854e07U,
  0x3ca7cd4e3c13328aU, 0x3c8cc5483cadadf7U, 0x3d92cf9a3c3d22b4U, 0x3d1509ea3d9a948bU,
  0x3a46f7a23cc53390U, 0x3ccd1c4e3cd6b9eeU, 0x3d993e1fbcce9a75U, 0x3d2215a8ba453cb7U,
  0x3d95a4b43d34a752U, 0x3df0113e3d6bc5b5U, 0x3d3f5a4e3d5c3045U, 0xbbf4a6babb58e9f4U,
  0x3ca377ea3cabcff3U, 0x3ca908433b6dd7a8U, 0x3d141b82bba23a6fU, 0xba3986c03ca2ccadU,
  0x3c9fdbd73d00ed42U, 0x3d9991093c67ab57U, 0x3d2a6acc3cb9579bU, 0x3b5e8c4ebb47cbcfU,
  0xbc30158ebbaef84fU, 0x3c2386bf3c2a89eeU, 0xbadc957b3ca0d241U, 0x3c0c14893d0d21c5U,
  0xbb14438e3d5f8e09U, 0x3d21e02b3d77c956U, 0x3c6c0d6ebc7959e9U, 0x3beda8843b705676U,
  0xba94d3ee3cf44e78U, 0x3cf720653d53e1c5U, 0x3d04e2f63d42dd38U, 0xbc26ceca3c4fca42U,
  0x3cc9073b3d184515U, 0x3c9d54553c3a100cU, 0x3d34d97bbb2f7206U, 0x3d17ec1cbd3eb3e0U,
  0x3dc05f4ebd01e7e7U, 0x3d72fcb73cd4425dU, 0x3cc52aba3d21fa2fU, 0x3c52aca93c9e340fU,
  0x3a849e06bbcfc1baU, 0xba43a9ed3d36bfd5U, 0x3bf9f5ab3d6ecfdcU, 0xb9c6ad723d43b587U,
  0xbc14cb643ccfdc94U, 0x3d00cdbc3c851e02U, 0x3d93b8803d44aeb0U, 0x3cf584923bdc57f9U,
  0x3b74b5613cf62056U, 0x3bad8b713d43b47fU, 0x3d6e1c9f3c4cd655U, 0x3d103219bb4a43a3U,
  0x3c8520153c4a8428U, 0x3da587e23bc95458U, 0x3d9182363c9503ecU, 0x3c42c4523bf7aac3U,
  0xbcc642513c810e13U, 0xbd1be8f03ce25014U, 0xbc5c8fc43ddc7f53U, 0x3d1fc5753d997fbcU,
  0xbb9581dc3d0c6778U, 0xbd2971c23d69ff1aU, 0x3cdbfb723d090febU, 0x3d2209063d2e5ad0U,
  0xbac98ce5bd3c1a45U, 0x3d099cb3b93264c5U, 0xbcec5ff3bb341f09U, 0x3cc234d73cc9383eU,
  0x3d3018043bb7b9e2U, 0xbb1cdc543bf20d29U, 0x382e7b9a3cf52ec8U, 0x3d15bbd73cdfc82eU,
  0x3bd589253d209cafU, 0x3cae9e10bb6f2f43U, 0x3d0d617b3d42b8b0U, 0x3d6f5e3f3ddbc57dU,
  0xbd3d13aabd837fbfU, 0xbd4e1ca73b700b47U, 0xbc9048b7bd56cd7aU, 0xbd00146ebd9b0419U,
  0xbb8d0e443c62620eU, 0xbd30b53cbc65a6ceU, 0xbc8a45313d0f06a4U, 0xbd2c6acdbacb3a46U,
  0x3aaba6eabaab5ecaU, 0x3b24cdf7bcb45bd4U, 0x3b9866263cec9911U, 0x3d433a6e3dbb0b53U,
  0x3dbd7b5a3d662329U, 0x3d41ba073db8e82fU, 0x3cd0bc273c1c261eU, 0xbd7c5aecbd753215U,
  0xbe090344bdf6da61U, 0xbe5a7b9cbe4b56c5U, 0xbe8d38eebe83c46dU, 0xbe705d0cbeabccc0U,
  0xbdee4af4be8e62a6U, 0xbcb38369be0a6497U, 0x3dc185cdbcde53f3U, 0x3debb37a3ddd5e4fU,
  0x3e7dc0bb3e2cab92U, 0x3e2fe3883e2fdb2aU, 0x3e462bcd3e330f65U, 0x3d882f753e02750aU,
  0xbe1b5f4f3a3be963U, 0xbe5bf473be209128U, 0xbeb220d1be8440d4U, 0xbea8c677be86c99dU,
  0xbe88f040be5dd525U, 0xbe83ae40be7efc83U, 0xbddf2fd4be2fb29cU, 0x3c9a9dbabde91c87U,
  0x3de474573d5ddd72U, 0x3e1e06fb3dec2258U, 0x3da0b83b3e0bf0e4U, 0x3db9ad723dbe0521U,
  0x3caa773c3d886673U, 0xbcb875dc3d5ae9c5U, 0xbcf072c2bd45bef6U, 0xbdfa3d38bdd0f65eU,
  0xbe4158a2bde5f733U, 0xbdf903e7be23d75cU, 0xbdb72e8cbd58a2ebU, 0x3c4ccd6ebc8cad97U,
  0x3d8f52233cf48aeeU, 0x3d4f9d913d8531e7U, 0x3cba5a1b3e0a724eU, 0xbd33c3be3b4ded24U,
  0xbd1dfbbdbcb743c7U, 0xbd9f3f98bd0fb83dU, 0xbdf87e21bd9d1c76U, 0xbe0379d8be1069f3U,
  0xbd8b11d2bd6795c6U, 0xbccd3e40bd2abc4eU, 0x3be16aad3cf69e00U, 0x3d8677713d33a3b3U,
  0x3cf5581dbc05e7c4U, 0x3c3dce8a3d1a2dd6U, 0xbd65ec3bbc2e2d8dU, 0xbd937406bd487c0bU,
  0xbe101aa7bdd78247U, 0xbcf2f7b9bde8878eU, 0xbd2203413ca392a6U, 0x3d35e2593dab5e3bU,
  0x3d4d787c3d92a57dU, 0x3d416acd3db2c59aU, 0x3caefe9d3dd1eee9U, 0xbbdbb8a53cd37440U,
  0xbd6166c1bd219b5bU, 0xbe34353ebe09bb52U, 0xbe03a1b2be354160U, 0xbdee4343bddf9c99U,
  0xbdb32fefbdf98478U, 0xbb9dbbfabd171dbcU, 0xbcfe45473c3ce432U, 0x3d8596a53d215acbU,
  0x3d3846893d31f9caU, 0x3c19e4663d036519U, 0xbd0d63afbba950e2U, 0xbaabcd40ba19455dU,
  0x38a5bfbcbd76cd24U, 0x3de1cf1a3dec4b5fU, 0x3c9679e1bd999bbcU, 0x3e0f33e8bdab9ff9U,
  0xbc991ab83dd8cd99U, 0xbe578b353caeae3cU, 0xbe139b403d5701b9U, 0xbe7a33dd3d443beaU,
  0x3d068c20bca553e5U, 0x3d7984e0bbf1c914U, 0xbbfc4e343d053624U, 0x3ce8c34dbd0501adU,
  0x3cc19e293d8efd2eU, 0xbd3d6fbfbd960b4aU, 0x3e359fc5be01fac3U, 0xbded28f03c022721U,
  0xbe13b5823ca86ac5U, 0x3bd4ef953d133320U, 0xbd01a2c93da0d33bU, 0x3d988f193b95bad6U,
  0xbc79cfb83e395c8fU, 0x3d37f415bd91e9a0U, 0xbd3b2c0fbd804551U, 0xbe3dfae9bc1d49d8U,
  0x3ca623bfbdaf47fbU, 0x3e09ef13bb343ae0U, 0xba9e6c99bc34cc85U, 0xbd8e32c7bc5fbd00U,
  0xbd313fa73e14f5deU, 0xbd8b234b3c5443fbU, 0x3d687c72bd850968U, 0xbdb1ccc7bd94e3b2U,
  0xbd14555dbdd46738U, 0x3ca1a746bd338dc6U, 0x3dd7f5223d981429U, 0x3e17f763bc8afaf0U,
  0xbcc466b83df18d6cU, 0xbd6985373d99151bU, 0xbe0eb885bd89ec86U, 0xbd6e13f3bd5b7a4aU,
  0xbc2b15a5be0b5daaU, 0x3dc57ad6bb0c63c3U, 0x3c91a1733d405c5cU, 0x3c87553c3d807718U,
  0x3d2193013cdcc3acU, 0xbd2e24ac3d1cb206U, 0x3c4fa4d4bdf972fcU, 0xbc6506aabd886a83U,
  0xbdf69df7bd2fd9b2U, 0xbe29441ebd56e06dU, 0x3d81dff3b95945f2U, 0x3deb39d83db24bd9U,
  0x3dced2733d9f3998U, 0x3d017e523d92639dU, 0xbdaa7f3d3da3d3c0U, 0xbdef6e7abcd0431bU,
  0xbe00fb8dbe3451baU, 0x3d934a32bd9302ecU, 0x3c233ffa3d305c03U, 0xbc7a028a3d32776aU,
  0x3d54da703d90b353U, 0x3e07ebc13baacad6U, 0x3d2fed9cbd717496U, 0xbdf2fa0abe41bf54U,
  0xbe661c3ebde3b3f4U, 0xbe427269bc918161U, 0xbdb4cf083c42f528U, 0x3d2e24303d627490U,
  0x3df2bfc83dccb531U, 0x3d550200bdbbb4a1U, 0xbc58962ebcaa46efU, 0xbd89e7a43c983838U,
  0xbdda1cc5bcf36c7fU, 0xbc103f943d92db33U, 0xbd085ce4be218cc1U, 0x3bb0b531bd852afdU,
  0x3d0d93003d64a2adU, 0x3ce45f563cb2c390U, 0x3da1b60f3cf213fbU, 0xbcb3b77b3c73b6caU,
  0xbd715b7ebd770b38U, 0xbe1c2c253d77eedaU, 0xbe62d62bbb4f0fc8U, 0x3e0f6eacbb09777bU,
  0x3d9f2a803cc13c3eU, 0x3df93c003d9dc0c5U, 0xbc9645713d420074U, 0xbd16b0e9bd8f22acU,
  0xbb3c644b3ccc0eddU, 0xbd3d1a10bd1a097eU, 0xbd51272dbc69e2abU, 0xbc709a783c82eb39U,
  0x3cc14c36bca3d1b3U, 0x3ca90c403c930e16U, 0x3c058d0b3c52db58U, 0x3d2044f63c271ceeU,
  0xbcfb60c3bcb291d0U, 0xbd7885bcbb46d28dU, 0xbd332a2ebcf40ec5U, 0xbda9e78bbd1e052bU,
  0xbe09e003bda31224U, 0xbdec2c52be153c60U, 0xbcf755d1bd5ee09eU, 0x3d2336e93bb51482U,
  0x3da535303dc84c38U, 0x3d99c8e53d6063cfU, 0x3d47606b3dd5d661U, 0x3d11661b3dc7bc9dU,
  0xbce9342d3ca5a72bU, 0xbdd7685bbdc510bcU, 0xbe57e25abe305da2U, 0xbe62a0aebe888343U,
  0xbe6e98b0be6cf225U, 0xbe3edd14be51bcebU, 0xbda9530abde18127U, 0x3d5d72ca3ba98347U,
  0x3dc1fa383e0b895fU, 0x3e433edb3e20a172U, 0x3e06e7533e103b0eU, 0x3d89dc253e22d9f1U,
  0xbb74bf653d4fccd2U, 0xbdb2604bbd8d2430U, 0xbe7ade9dbe5a5a24U, 0xbea2e0ccbe4cb56eU,
  0xbe89f32fbe7a99d9U, 0xbe803239be81b96cU, 0xbdb4dcfcbdde2be2U, 0x3d9508a73c5c1464U,
  0x3dc8ba3f3dd6f3e7U, 0x3df41ba03e054ecfU, 0x3e0bcc3e3e034378U, 0x3dba706b3d7ff739U,
  0xbdaf8a95bcda05ccU, 0xbe0f295fbdbf3cebU, 0xbe758245be1d572fU, 0xbe10dc9bbe6dfacdU,
  0xbd9fbd88be197131U, 0x3b0e1880bdc33505U, 0x3d067844bc311639U, 0x3d8ea72c3d583274U,
  0x3d9857a33d5302f3U, 0x3d782a123c80c214U, 0xbd506193bc38907dU, 0xbd8a1f2abd0bd50dU,
  0xbdb18203bdfd5572U, 0xbddb2e0cbdd7045dU, 0xbdc2315fbdf0e926U, 0x3cc83b6abbe6947eU,
  0x3cffe0c63cb0c8c1U, 0x3d8287603dd5879eU, 0x3daf48e53d3d2551U, 0xbc28ec953c9fabf1U,
  0xbc9996a53cbb2d4fU, 0xbd84a6d3bd5f15ceU, 0xbdc558aebdccb5cfU, 0xbd6d9f45bdd99fe7U,
  0xbc8b7f82bda8337cU, 0x3a9ebc4abc84e9d3U, 0x3cf406c1bc9d8b61U, 0x3d4e4fcd3d5024c4U,
  0x3d748e4d3d14298dU, 0x3cabba2f3a3fdd1fU, 0xbd0198acbcccd915U, 0xbdc520afbd4f1d91U,
  0xbe0680eabe0bd85aU, 0xbe3818c3bdfbe7adU, 0xbda0c044bd861d3dU, 0xbcd78817bd4777feU,
  0x3ca53bcdbd349e27U, 0x3daf58723d31d980U, 0x3d5671c63d97e777U, 0xbd1106863c534352U,
  0xbd5a293d3c4c6aaaU, 0x3daf4676bcb1e6b6U, 0x3d8cb8353be3094dU, 0xbd3161213d3acdfcU,
  0xbd1b0f373e1bd1f3U, 0x3c1ef7e43d7f8b20U, 0x3cbbef86bc330f33U, 0xbbe0e9d43b0a1c58U,
  0xbc91a6b2bd0d9cacU, 0xbb0e0e3d3c8e8532U, 0x3cf18f8bbbfcf61eU, 0x3d931c62bdbdfc66U,
  0x3da3ff5b3d167beeU, 0xbd08a3fa3d31f1dbU, 0xbd09edb63c2c18cbU, 0xbd83a6a83c8fe58dU,
  0xbd4620a2bd47b671U, 0x3dcd21f9bbca5b9fU, 0x3de02be33d7d72f5U, 0xbd0d4ff73d28c9fbU,
  0x3cd98fbb3cb85049U, 0x3ce99a4bbd78eb10U, 0x3cbf4785bd2dd143U, 0x3d72a639bcd06811U,
  0x3ce152f03cc887ecU, 0xbcfa14023cf5348bU, 0xbda708773d3652c2U, 0x3c0ab34bbc005920U,
  0xbc16d5f13ce64a08U, 0x3d58c7ce3c061b3cU, 0xbc07bf3f3d587032U, 0x3b2125bebd9c39ceU,
  0xbc399316bdaf97b8U, 0x3dcf5adabccfdb74U, 0x3c9612163cd9942dU, 0x398b0cadbb91d099U,
  0xbcd82ca13d72d06bU, 0xbc1c028d3d2dcd31U, 0x3c85de053ca9bb65U, 0x3d8e18303cc2e63cU,
  0xbd92cd4e3d177c14U, 0xbd7a0c943e0431f8U, 0xbc35437b3ce7e5a3U, 0xbc9512eaba419b84U,
  0x3dc263e5bbff68cfU, 0x3dd541ad3d421909U, 0xbc838a743dc52d12U, 0xbda1c7753d8619efU,
  0xbd194eed3d2d8594U, 0xbd03dec83c048d15U, 0x3a9ed5463cc316b1U, 0xbbc0f8493d80e411U,
  0x3b8612b23dabc11aU, 0x3c97bf7a3d3d289eU, 0x3d82a7d53a128004U, 0x3dbf97ce3c64eabbU,
  0xbd6072cfbd168904U, 0xbc513ff03d865751U, 0x3d0831d2bcd4bcb1U, 0x3deea2d1bd2790feU,
  0x3d9a3ace3d14c4beU, 0x3caedfb93d348956U, 0x3c7232bf3c79df66U, 0xbbdc3f8d3dd3910cU,
  0xbd02d3a63bed96daU, 0x3c467df93ce590dcU, 0x3dbd50f83c909437U, 0x3d21e4d63ad36350U,
  0x3dbdddedbd41dbe0U, 0xbae1af603be91e6dU, 0xbd032cef3d652086U, 0x3d7f84a33caf2be3U,
  0x3ce943223d1fa79cU, 0xbd739445bd180180U, 0x3d09ff57bc5f85a5U, 0x3d3707a23d4be699U,
  0x3ce67af63d516fd0U, 0x3ccb35053d97565dU, 0xbd35faf43c832dfdU, 0x3cc774243d35f7d5U,
  0x3c9590373dd8096fU, 0x3d27852ebc7e446aU, 0x3d52b26e3c0d4875U, 0x3db69a383bc0121cU,
  0xbcf18b9cbd15db66U, 0x3b58fe81bcb11d2eU, 0xbc8b7d313b2d1687U, 0xbd6ecf25bc0972a0U,
  0xbd1b44a2bc555fabU, 0x3b6432c2bd060f43U, 0xbcdb3b083b16934aU, 0xbd133c6b3c8f2f5dU,
  0xbbb2412dba2a6915U, 0x3d03d3a7bc1440c7U, 0xbd4b7eb1bd1ae403U, 0x3d01d8a23cf3dbfaU,
  0x3dd1d0213d4beeafU, 0x3cad699a3d32b60dU, 0x3d371a8e3d9cde93U, 0x3d2aceaf3cc49e8cU,
  0xb984ca663d343861U, 0xbce2da73bd2a876cU, 0xbdb89d24bd7a3bd8U, 0xbde530d9bdcb358aU,
  0xbe38eb55be0bcffbU, 0xbe277d58be1b5f0cU, 0xbdf0f86abdce86a3U, 0xbd7823fabd51a39fU,
  0xbcabe597bc1a7762U, 0x3d3a9475bccb4a6aU, 0x3d0815c13cfd2fd0U, 0x3d9795203d620472U,
  0x3db40f353dab4d7dU, 0x3dd08b183d87ba70U, 0x3d315f6a3d917371U, 0x3c2134a63c92910fU,
  0xbc880064bbc390b2U, 0xbda0c617bdc25cc9U, 0xbde17973be21a655U, 0xbe11229dbe281367U,
  0xbe5db92cbe2fc1b8U, 0xbe5deff2bdfde3faU, 0xbe34cfeabe221dadU, 0xbdae6693be1c9fc0U,
  0xbb238f60bd93e9aeU, 0x3c0e3617bc419f3dU, 0x3de3e2993db0f209U, 0x3de571d83d9f602eU,
  0x3e0edd0e3df90437U, 0x3e063cce3e05c53fU, 0x3d5023453de09d43U, 0x3d519e443d015fcfU,
  0xbd578002bcd0d88aU, 0xbe1a8fb1bd95836bU, 0xbe75beb4be7f576aU, 0xbe5711cdbe86eda9U,
  0xbe0702babe529307U, 0xbd47b751bd975844U, 0xba9be827b941598fU, 0x3c99bb013ccb2c60U,
  0x3d7538b93cf52fe5U, 0xbce7a949bbd1c961U, 0xbd79e671bd563ff3U, 0xbdfb41abbdd6d9f4U,
  0xbdc3ee91bdb28817U, 0xbd8b91b4bde41bc3U, 0xbc0f342bbe07f6d1U, 0xbbe3abe1bc4d4826U,
  0x3dad01013ce284b4U, 0x3dd526cb3def5ba3U, 0x3e5560513dc703b1U, 0x3de5139a3e562de2U,
  0x3db8cca83dc6dd49U, 0xbd1a25673ca8758fU, 0xbe1a62c8be558e8eU, 0xbea76b9abe757454U,
  0xbea8c43ebe870cc9U, 0xbe83efd1be8f670cU, 0xbe4da843bea507baU, 0xbdd622e6be1917c7U,
  0xbc3313d0bc8382e8U, 0x3da209343da355d1U, 0x3e102c153deb185bU, 0x3dcd657a3d66b84aU,
  0x3d5e78343d859859U, 0x3c8573653d036c16U, 0xbd3e7c35bcc94dceU, 0xbd78d1e0bcf54a09U,
  0xbdf5087cbd8f0227U, 0xbd9f6d2bbd423af0U, 0xbdae3660bdc09b2cU, 0xbdb74aa3bd3a7810U,
  0xbd843ff7bd839076U, 0xbd7927c4be175e52U, 0xbdf2e006bd933b5fU, 0x3d03b6a3bd9f7663U,
  0xbde277e8bd000f79U, 0xbe237b94bdee3c74U, 0xbda8a67abd8f9678U, 0xbdadda86bd49089aU,
  0xbd3d6d21bddf462eU, 0xbd917cd0bd9eb69eU, 0xbd71e905be000987U, 0x3bdc8aa0bd2610acU,
  0xbd18aa3dbdc78cbfU, 0xbdf13a14bd4ff18bU, 0xbdbd7814bda65875U, 0xbd72881bbd077bd5U,
  0xbddce897bd67982eU, 0xbbdd9fe1bdada3adU, 0xbdb38951be23329bU, 0xbd7c3038bd0a8317U,
  0xbbeab4f7bdbc9b05U, 0xbdfcdf4abd47e5cfU, 0xbe0cdf15bd6195fbU, 0xbdb2b94cbca51accU,
  0xbd8e6aa63b4134e6U, 0xbd1c6847bda1a5dfU, 0xbc25f510be186227U, 0xbdf677b4bd54baadU,
  0xba7c413abdd06751U, 0xbda8eeedbca8b6aaU, 0xbdd4c2febd1cd3c7U, 0xbdb34629bdc2d1a1U,
  0xbe049f0ebbf9926fU, 0xbd82b681bdc21dfeU, 0xbdc7fd12bd8bfcd9U, 0xbdb9099ebdcda5d9U,
  0xbc613b34bd997c2eU, 0xbdb4e778bdcd0fbeU, 0xbdd9480ebd798703U, 0xbdb6fe1fbdbed760U,
  0xbd9b0ceabd8a2e77U, 0xbd485da0bd8aba7eU, 0xbd768698bda9fca0U, 0xbbc3f61bbdd6ded4U,
  0xbce02be9bc4b0dc9U, 0xbc628c2abdd6be16U, 0xbde00841bd9af7d7U, 0xbdf2f9f3bd979a6bU,
  0xbdae9d5dbd93e621U, 0xbd5517aabd2a188fU, 0xbc771cdcbda25d43U, 0xbdaa92babdd9e1f3U,
  0xbdc0097dbd58ec97U, 0xbaf715e0bd697007U, 0xbd939326bd4c3964U, 0xbe0c64aabd7914e9U,
  0xbdb3d238bd0b0d22U, 0xbdbad7e0bd21f6adU, 0xbd7d47c1bdaba83eU, 0x3c2d27b0bd9180aeU,
  0xbe07487dbdc5030fU, 0x3b8218f5bd90f0f7U, 0xbd890544bd78b2dbU, 0xbd0ebf4ebd0c0071U,
  0xbdcff3fabdc6e8fdU, 0xbdc981253d04e150U, 0xbdc21c89bd210f0eU, 0xbd292102bd79afc5U,
  0xbd695d5abdac10f9U, 0xbd233df6bdbeb7c0U, 0xbd1b82a6bd96cbf1U, 0xbd601f54bcbce5b0U,
  0xbda1ff81bd0b5adaU, 0xbda3bbe0be016b78U, 0xbd9b73c7bd564636U, 0x3c4d8886bca77af0U,
  0xbc8aed1cbdd6b596U, 0xbd242b23bd1d748aU, 0x3d02c347be068dc0U, 0xbca9ef8fbb885429U,
  0xbdf31052bd1665cbU, 0xbd3cc73ebd6f0a8dU,
};


ai_buffer g_network_data_map_activations[AI_NETWORK_DATA_ACTIVATIONS_COUNT] = {
  AI_BUFFER_INIT(AI_FLAG_NONE,  AI_BUFFER_FORMAT_U8,
    AI_BUFFER_SHAPE_INIT(AI_SHAPE_BCWH, 4, 1, 840, 1, 1),
    840, NULL, NULL),    /* heap_overlay_pool */
  };
ai_buffer g_network_data_map_weights[AI_NETWORK_DATA_WEIGHTS_COUNT] = {
  AI_BUFFER_INIT(AI_FLAG_NONE,  AI_BUFFER_FORMAT_U8,
    AI_BUFFER_SHAPE_INIT(AI_SHAPE_BCWH, 4, 1, 27760, 1, 1),
    27760, NULL, s_network_network_weights_array_u64),   /* network_weights_array */
  };


/*!
 * @brief Get network activations buffer initialized struct.
 * @ingroup network_data
 * @param[in] ptr a pointer to the activations array storage area
 * @return an ai_buffer initialized struct
 */
AI_DEPRECATED
AI_API_ENTRY
ai_buffer ai_network_data_activations_buffer_get(const ai_handle ptr)
{
  ai_buffer buf = AI_BUFFER_INIT(
    AI_FLAG_NONE, AI_BUFFER_FORMAT_U8,
    AI_BUFFER_SHAPE_INIT(AI_SHAPE_BCWH, 4, 1, AI_NETWORK_DATA_ACTIVATIONS_SIZE, 1, AI_NETWORK_DATA_ACTIVATIONS_COUNT),
    AI_NETWORK_DATA_ACTIVATIONS_SIZE,
    NULL, ptr);
  return buf;
}

/*!
 * @brief Get network weights buffer initialized struct.
 * @ingroup network_data
 * @param[in] ptr a pointer to the weights array storage area
 * @return an ai_buffer initialized struct
 */
AI_DEPRECATED
AI_API_ENTRY
ai_buffer ai_network_data_weights_buffer_get(const ai_handle ptr)
{
  ai_buffer buf = AI_BUFFER_INIT(
    AI_FLAG_NONE, AI_BUFFER_FORMAT_U8|AI_BUFFER_FMT_FLAG_CONST,
    AI_BUFFER_SHAPE_INIT(AI_SHAPE_BCWH, 4, 1, AI_NETWORK_DATA_WEIGHTS_SIZE, 1, AI_NETWORK_DATA_WEIGHTS_COUNT),
    AI_NETWORK_DATA_WEIGHTS_SIZE,
    NULL, ptr);
  return buf;
}


/*!
 * @brief Get network weights array pointer as a handle ptr.
 * @ingroup network_data
 * @return a ai_handle pointer to the weights array
 */
AI_DEPRECATED
AI_API_ENTRY
ai_handle ai_network_data_weights_get(void)
{
  static const ai_u8* const s_network_weights_table[1 + 2] = {
    AI_PTR(AI_MAGIC_MARKER),
    AI_PTR(s_network_network_weights_array_u64),
    AI_PTR(AI_MAGIC_MARKER)
  };

  return AI_HANDLE_PTR(s_network_weights_table);

}


/*!
 * @brief Get network params configuration data structure.
 * @ingroup network_data
 * @return true if a valid configuration is present, false otherwise
 */
AI_API_ENTRY
ai_bool ai_network_data_params_get(ai_network_params* params)
{
  if (!params) return false;
  
  const ai_buffer_array map_activations = 
    AI_BUFFER_ARRAY_OBJ_INIT(AI_FLAG_NONE, AI_NETWORK_DATA_ACTIVATIONS_COUNT, g_network_data_map_activations);
  
  const ai_buffer_array map_weights = 
    AI_BUFFER_ARRAY_OBJ_INIT(AI_FLAG_NONE, AI_NETWORK_DATA_WEIGHTS_COUNT, g_network_data_map_weights);

  return ai_platform_bind_network_params(params, &map_weights, &map_activations);
}


AI_API_DECLARE_END
